{
  "version": "1.0",
  "truncation": null,
  "padding": null,
  "added_tokens": [
    {
      "id": 0,
      "content": "<pad>",
      "single_word": false,
      "lstrip": false,
      "rstrip": false,
      "normalized": false,
      "special": true
    },
    {
      "id": 1,
      "content": "<unk>",
      "single_word": false,
      "lstrip": false,
      "rstrip": false,
      "normalized": false,
      "special": true
    },
    {
      "id": 2,
      "content": "<bos>",
      "single_word": false,
      "lstrip": false,
      "rstrip": false,
      "normalized": false,
      "special": true
    },
    {
      "id": 3,
      "content": "<eos>",
      "single_word": false,
      "lstrip": false,
      "rstrip": false,
      "normalized": false,
      "special": true
    }
  ],
  "normalizer": null,
  "pre_tokenizer": {
    "type": "Whitespace"
  },
  "post_processor": null,
  "decoder": null,
  "model": {
    "type": "BPE",
    "dropout": null,
    "unk_token": null,
    "continuing_subword_prefix": null,
    "end_of_word_suffix": null,
    "fuse_unk": false,
    "byte_fallback": false,
    "ignore_merges": false,
    "vocab": {
      "<pad>": 0,
      "<unk>": 1,
      "<bos>": 2,
      "<eos>": 3,
      "!": 4,
      "\"": 5,
      "#": 6,
      "$": 7,
      "%": 8,
      "&": 9,
      "'": 10,
      "(": 11,
      ")": 12,
      "*": 13,
      "+": 14,
      ",": 15,
      "-": 16,
      ".": 17,
      "/": 18,
      "0": 19,
      "1": 20,
      "2": 21,
      "3": 22,
      "4": 23,
      "5": 24,
      "6": 25,
      "7": 26,
      "8": 27,
      "9": 28,
      ":": 29,
      ";": 30,
      "<": 31,
      "=": 32,
      ">": 33,
      "?": 34,
      "@": 35,
      "A": 36,
      "B": 37,
      "C": 38,
      "D": 39,
      "E": 40,
      "F": 41,
      "G": 42,
      "H": 43,
      "I": 44,
      "J": 45,
      "K": 46,
      "L": 47,
      "M": 48,
      "N": 49,
      "O": 50,
      "P": 51,
      "Q": 52,
      "R": 53,
      "S": 54,
      "T": 55,
      "U": 56,
      "V": 57,
      "W": 58,
      "X": 59,
      "Y": 60,
      "Z": 61,
      "[": 62,
      "\\": 63,
      "]": 64,
      "^": 65,
      "_": 66,
      "`": 67,
      "a": 68,
      "b": 69,
      "c": 70,
      "d": 71,
      "e": 72,
      "f": 73,
      "g": 74,
      "h": 75,
      "i": 76,
      "j": 77,
      "k": 78,
      "l": 79,
      "m": 80,
      "n": 81,
      "o": 82,
      "p": 83,
      "q": 84,
      "r": 85,
      "s": 86,
      "t": 87,
      "u": 88,
      "v": 89,
      "w": 90,
      "x": 91,
      "y": 92,
      "z": 93,
      "|": 94,
      "}": 95,
      "~": 96,
      "¡": 97,
      "¢": 98,
      "£": 99,
      "¤": 100,
      "¥": 101,
      "¦": 102,
      "§": 103,
      "¨": 104,
      "©": 105,
      "ª": 106,
      "«": 107,
      "¬": 108,
      "®": 109,
      "¯": 110,
      "°": 111,
      "±": 112,
      "²": 113,
      "³": 114,
      "´": 115,
      "µ": 116,
      "¶": 117,
      "·": 118,
      "¸": 119,
      "¹": 120,
      "º": 121,
      "»": 122,
      "¼": 123,
      "½": 124,
      "¾": 125,
      "¿": 126,
      "À": 127,
      "Á": 128,
      "Â": 129,
      "Ã": 130,
      "Ä": 131,
      "Å": 132,
      "Æ": 133,
      "Ç": 134,
      "È": 135,
      "É": 136,
      "Ê": 137,
      "Ë": 138,
      "Ì": 139,
      "Í": 140,
      "Î": 141,
      "Ï": 142,
      "Ð": 143,
      "Ñ": 144,
      "Ò": 145,
      "Ó": 146,
      "Ô": 147,
      "Õ": 148,
      "Ö": 149,
      "×": 150,
      "Ø": 151,
      "Ù": 152,
      "Ú": 153,
      "Û": 154,
      "Ü": 155,
      "Ý": 156,
      "Þ": 157,
      "ß": 158,
      "à": 159,
      "á": 160,
      "â": 161,
      "ã": 162,
      "ä": 163,
      "å": 164,
      "æ": 165,
      "ç": 166,
      "è": 167,
      "é": 168,
      "ê": 169,
      "ë": 170,
      "ì": 171,
      "í": 172,
      "î": 173,
      "ï": 174,
      "ð": 175,
      "ñ": 176,
      "ò": 177,
      "ó": 178,
      "ô": 179,
      "õ": 180,
      "ö": 181,
      "÷": 182,
      "ø": 183,
      "ù": 184,
      "ú": 185,
      "û": 186,
      "ü": 187,
      "ý": 188,
      "þ": 189,
      "ÿ": 190,
      "Ā": 191,
      "ā": 192,
      "Ă": 193,
      "ă": 194,
      "Ą": 195,
      "ą": 196,
      "Ć": 197,
      "ć": 198,
      "ĉ": 199,
      "ċ": 200,
      "Č": 201,
      "č": 202,
      "Ď": 203,
      "ď": 204,
      "Đ": 205,
      "đ": 206,
      "Ē": 207,
      "ē": 208,
      "Ĕ": 209,
      "ĕ": 210,
      "Ė": 211,
      "ė": 212,
      "ę": 213,
      "Ě": 214,
      "ě": 215,
      "ĝ": 216,
      "Ğ": 217,
      "ğ": 218,
      "Ġ": 219,
      "ġ": 220,
      "ģ": 221,
      "Ĥ": 222,
      "ħ": 223,
      "ĩ": 224,
      "Ī": 225,
      "ī": 226,
      "ĭ": 227,
      "Į": 228,
      "į": 229,
      "İ": 230,
      "ı": 231,
      "ĳ": 232,
      "ķ": 233,
      "ĺ": 234,
      "ļ": 235,
      "Ľ": 236,
      "ľ": 237,
      "ŀ": 238,
      "Ł": 239,
      "ł": 240,
      "Ń": 241,
      "ń": 242,
      "Ņ": 243,
      "ņ": 244,
      "ň": 245,
      "ŋ": 246,
      "Ō": 247,
      "ō": 248,
      "ŏ": 249,
      "Ő": 250,
      "ő": 251,
      "Œ": 252,
      "œ": 253,
      "Ŕ": 254,
      "ŕ": 255,
      "Ř": 256,
      "ř": 257,
      "Ś": 258,
      "ś": 259,
      "Ş": 260,
      "ş": 261,
      "Š": 262,
      "š": 263,
      "Ţ": 264,
      "ţ": 265,
      "Ť": 266,
      "ť": 267,
      "Ũ": 268,
      "ũ": 269,
      "Ū": 270,
      "ū": 271,
      "Ŭ": 272,
      "ŭ": 273,
      "Ů": 274,
      "ů": 275,
      "Ű": 276,
      "ű": 277,
      "ų": 278,
      "ŵ": 279,
      "ŷ": 280,
      "Ÿ": 281,
      "Ź": 282,
      "ź": 283,
      "Ż": 284,
      "ż": 285,
      "Ž": 286,
      "ž": 287,
      "ſ": 288,
      "Ɛ": 289,
      "ƒ": 290,
      "ơ": 291,
      "ư": 292,
      "Ʒ": 293,
      "ƿ": 294,
      "ǎ": 295,
      "ǐ": 296,
      "ǒ": 297,
      "ǔ": 298,
      "ǝ": 299,
      "ǣ": 300,
      "ǧ": 301,
      "ǫ": 302,
      "ǰ": 303,
      "Ǹ": 304,
      "ǹ": 305,
      "ǿ": 306,
      "ț": 307,
      "Ȝ": 308,
      "ȝ": 309,
      "ȳ": 310,
      "ɐ": 311,
      "ɑ": 312,
      "ɒ": 313,
      "ɔ": 314,
      "ɕ": 315,
      "ɖ": 316,
      "ə": 317,
      "ɚ": 318,
      "ɛ": 319,
      "ɜ": 320,
      "ɝ": 321,
      "ɟ": 322,
      "ɡ": 323,
      "ɣ": 324,
      "ɤ": 325,
      "ɦ": 326,
      "ɨ": 327,
      "ɪ": 328,
      "ɫ": 329,
      "ɬ": 330,
      "ɯ": 331,
      "ɲ": 332,
      "ɳ": 333,
      "ɶ": 334,
      "ɸ": 335,
      "ɹ": 336,
      "ɻ": 337,
      "ɾ": 338,
      "ʀ": 339,
      "ʁ": 340,
      "ʂ": 341,
      "ʃ": 342,
      "ʈ": 343,
      "ʊ": 344,
      "ʋ": 345,
      "ʌ": 346,
      "ʏ": 347,
      "ʐ": 348,
      "ʑ": 349,
      "ʒ": 350,
      "ʔ": 351,
      "ʜ": 352,
      "ʧ": 353,
      "ʰ": 354,
      "ʲ": 355,
      "ʷ": 356,
      "ʹ": 357,
      "ʺ": 358,
      "ʻ": 359,
      "ʼ": 360,
      "ʾ": 361,
      "ʿ": 362,
      "ˀ": 363,
      "ˆ": 364,
      "ˇ": 365,
      "ˈ": 366,
      "ˌ": 367,
      "ː": 368,
      "ˑ": 369,
      "˒": 370,
      "˓": 371,
      "˘": 372,
      "˙": 373,
      "˚": 374,
      "˜": 375,
      "˝": 376,
      "ˠ": 377,
      "ˤ": 378,
      "˧": 379,
      "˩": 380,
      "́": 381,
      "̂": 382,
      "̃": 383,
      "̄": 384,
      "̅": 385,
      "̆": 386,
      "̇": 387,
      "̌": 388,
      "̞": 389,
      "̣": 390,
      "̥": 391,
      "̩": 392,
      "̪": 393,
      "̯": 394,
      "͟": 395,
      "͡": 396,
      "΄": 397,
      "Ά": 398,
      "Έ": 399,
      "ΐ": 400,
      "Α": 401,
      "Β": 402,
      "Γ": 403,
      "Δ": 404,
      "Ε": 405,
      "Ζ": 406,
      "Η": 407,
      "Θ": 408,
      "Ι": 409,
      "Κ": 410,
      "Λ": 411,
      "Μ": 412,
      "Ν": 413,
      "Ξ": 414,
      "Ο": 415,
      "Π": 416,
      "Ρ": 417,
      "Σ": 418,
      "Τ": 419,
      "Υ": 420,
      "Φ": 421,
      "Χ": 422,
      "Ψ": 423,
      "Ω": 424,
      "ά": 425,
      "έ": 426,
      "ή": 427,
      "ί": 428,
      "α": 429,
      "β": 430,
      "γ": 431,
      "δ": 432,
      "ε": 433,
      "ζ": 434,
      "η": 435,
      "θ": 436,
      "ι": 437,
      "κ": 438,
      "λ": 439,
      "μ": 440,
      "ν": 441,
      "ξ": 442,
      "ο": 443,
      "π": 444,
      "ρ": 445,
      "ς": 446,
      "σ": 447,
      "τ": 448,
      "υ": 449,
      "φ": 450,
      "χ": 451,
      "ψ": 452,
      "ω": 453,
      "ϊ": 454,
      "ό": 455,
      "ύ": 456,
      "ώ": 457,
      "ϒ": 458,
      "ϕ": 459,
      "ϣ": 460,
      "ϩ": 461,
      "ϭ": 462,
      "ϱ": 463,
      "ϵ": 464,
      "І": 465,
      "Њ": 466,
      "Ћ": 467,
      "А": 468,
      "Б": 469,
      "В": 470,
      "Г": 471,
      "Д": 472,
      "Е": 473,
      "Ж": 474,
      "З": 475,
      "И": 476,
      "Й": 477,
      "К": 478,
      "Л": 479,
      "М": 480,
      "Н": 481,
      "О": 482,
      "П": 483,
      "Р": 484,
      "С": 485,
      "Т": 486,
      "У": 487,
      "Ф": 488,
      "Х": 489,
      "Ц": 490,
      "Ч": 491,
      "Ш": 492,
      "Э": 493,
      "Ю": 494,
      "Я": 495,
      "а": 496,
      "б": 497,
      "в": 498,
      "г": 499,
      "д": 500,
      "е": 501,
      "ж": 502,
      "з": 503,
      "и": 504,
      "й": 505,
      "к": 506,
      "л": 507,
      "м": 508,
      "н": 509,
      "о": 510,
      "п": 511,
      "р": 512,
      "с": 513,
      "т": 514,
      "у": 515,
      "ф": 516,
      "х": 517,
      "ц": 518,
      "ч": 519,
      "ш": 520,
      "щ": 521,
      "ъ": 522,
      "ы": 523,
      "ь": 524,
      "э": 525,
      "ю": 526,
      "я": 527,
      "ё": 528,
      "ђ": 529,
      "є": 530,
      "і": 531,
      "ї": 532,
      "ј": 533,
      "љ": 534,
      "њ": 535,
      "ћ": 536,
      "ў": 537,
      "ѣ": 538,
      "Ѳ": 539,
      "ѳ": 540,
      "ѷ": 541,
      "ґ": 542,
      "Ҙ": 543,
      "ҙ": 544,
      "қ": 545,
      "ү": 546,
      "Ҳ": 547,
      "ҳ": 548,
      "ә": 549,
      "Ӡ": 550,
      "ӡ": 551,
      "ө": 552,
      "Ա": 553,
      "Դ": 554,
      "Հ": 555,
      "Ն": 556,
      "Ս": 557,
      "Փ": 558,
      "Ք": 559,
      "ա": 560,
      "բ": 561,
      "գ": 562,
      "դ": 563,
      "ե": 564,
      "զ": 565,
      "է": 566,
      "ը": 567,
      "թ": 568,
      "ի": 569,
      "լ": 570,
      "ծ": 571,
      "կ": 572,
      "հ": 573,
      "ղ": 574,
      "մ": 575,
      "յ": 576,
      "ն": 577,
      "ո": 578,
      "պ": 579,
      "ռ": 580,
      "ս": 581,
      "տ": 582,
      "ր": 583,
      "ւ": 584,
      "փ": 585,
      "ք": 586,
      "֏": 587,
      "֖": 588,
      "ְ": 589,
      "ֱ": 590,
      "ֲ": 591,
      "ִ": 592,
      "ֵ": 593,
      "ֶ": 594,
      "ַ": 595,
      "ָ": 596,
      "ֹ": 597,
      "ֻ": 598,
      "ּ": 599,
      "־": 600,
      "ׁ": 601,
      "ׂ": 602,
      "׃": 603,
      "א": 604,
      "ב": 605,
      "ג": 606,
      "ד": 607,
      "ה": 608,
      "ו": 609,
      "ז": 610,
      "ח": 611,
      "ט": 612,
      "י": 613,
      "ך": 614,
      "כ": 615,
      "ל": 616,
      "ם": 617,
      "מ": 618,
      "ן": 619,
      "נ": 620,
      "ס": 621,
      "ע": 622,
      "ף": 623,
      "פ": 624,
      "ץ": 625,
      "צ": 626,
      "ק": 627,
      "ר": 628,
      "ש": 629,
      "ת": 630,
      "װ": 631,
      "ױ": 632,
      "ײ": 633,
      "׳": 634,
      "،": 635,
      "؛": 636,
      "؟": 637,
      "ء": 638,
      "آ": 639,
      "أ": 640,
      "ؤ": 641,
      "إ": 642,
      "ئ": 643,
      "ا": 644,
      "ب": 645,
      "ة": 646,
      "ت": 647,
      "ث": 648,
      "ج": 649,
      "ح": 650,
      "خ": 651,
      "د": 652,
      "ذ": 653,
      "ر": 654,
      "ز": 655,
      "س": 656,
      "ش": 657,
      "ص": 658,
      "ض": 659,
      "ط": 660,
      "ظ": 661,
      "ع": 662,
      "غ": 663,
      "ـ": 664,
      "ف": 665,
      "ق": 666,
      "ك": 667,
      "ل": 668,
      "م": 669,
      "ن": 670,
      "ه": 671,
      "و": 672,
      "ى": 673,
      "ي": 674,
      "ً": 675,
      "ٌ": 676,
      "ٍ": 677,
      "َ": 678,
      "ُ": 679,
      "ِ": 680,
      "ّ": 681,
      "ْ": 682,
      "ٲ": 683,
      "پ": 684,
      "چ": 685,
      "ړ": 686,
      "ږ": 687,
      "ک": 688,
      "گ": 689,
      "ں": 690,
      "ھ": 691,
      "ہ": 692,
      "ۇ": 693,
      "ۈ": 694,
      "ی": 695,
      "ە": 696,
      "۩": 697,
      "ܐ": 698,
      "ܕ": 699,
      "ܘ": 700,
      "ܚ": 701,
      "ܛ": 702,
      "ܝ": 703,
      "ܡ": 704,
      "ܢ": 705,
      "ܣ": 706,
      "ܥ": 707,
      "ܩ": 708,
      "ܪ": 709,
      "ܬ": 710,
      "ߝ": 711,
      "ँ": 712,
      "ं": 713,
      "ः": 714,
      "अ": 715,
      "आ": 716,
      "इ": 717,
      "ई": 718,
      "उ": 719,
      "ऋ": 720,
      "क": 721,
      "ख": 722,
      "ग": 723,
      "च": 724,
      "छ": 725,
      "ज": 726,
      "ट": 727,
      "ड": 728,
      "ढ": 729,
      "ण": 730,
      "त": 731,
      "द": 732,
      "ध": 733,
      "न": 734,
      "प": 735,
      "फ": 736,
      "ब": 737,
      "भ": 738,
      "म": 739,
      "य": 740,
      "र": 741,
      "ल": 742,
      "ळ": 743,
      "व": 744,
      "श": 745,
      "ष": 746,
      "स": 747,
      "ह": 748,
      "़": 749,
      "ा": 750,
      "ि": 751,
      "ी": 752,
      "ु": 753,
      "ू": 754,
      "ृ": 755,
      "े": 756,
      "ै": 757,
      "ॉ": 758,
      "ो": 759,
      "्": 760,
      "ॐ": 761,
      "।": 762,
      "॥": 763,
      "ং": 764,
      "অ": 765,
      "ক": 766,
      "খ": 767,
      "ণ": 768,
      "ত": 769,
      "ন": 770,
      "প": 771,
      "ব": 772,
      "ম": 773,
      "য": 774,
      "র": 775,
      "ল": 776,
      "ষ": 777,
      "স": 778,
      "়": 779,
      "া": 780,
      "ি": 781,
      "ী": 782,
      "ু": 783,
      "ূ": 784,
      "ে": 785,
      "্": 786,
      "ં": 787,
      "ક": 788,
      "ચ": 789,
      "દ": 790,
      "પ": 791,
      "ષ": 792,
      "ા": 793,
      "ી": 794,
      "્": 795,
      "ଋ": 796,
      "ତ": 797,
      "ୁ": 798,
      "அ": 799,
      "இ": 800,
      "எ": 801,
      "ஐ": 802,
      "க": 803,
      "ங": 804,
      "ச": 805,
      "ஜ": 806,
      "ட": 807,
      "ண": 808,
      "த": 809,
      "ந": 810,
      "ன": 811,
      "ப": 812,
      "ம": 813,
      "ய": 814,
      "ர": 815,
      "ற": 816,
      "ல": 817,
      "ள": 818,
      "ழ": 819,
      "வ": 820,
      "ா": 821,
      "ி": 822,
      "ீ": 823,
      "ு": 824,
      "ெ": 825,
      "ே": 826,
      "ை": 827,
      "ொ": 828,
      "ோ": 829,
      "்": 830,
      "ం": 831,
      "క": 832,
      "ద": 833,
      "ప": 834,
      "య": 835,
      "వ": 836,
      "శ": 837,
      "ష": 838,
      "స": 839,
      "ా": 840,
      "ి": 841,
      "్": 842,
      "ಕ": 843,
      "ಪ": 844,
      "ಷ": 845,
      "ಿ": 846,
      "್": 847,
      "ം": 848,
      "ക": 849,
      "ഗ": 850,
      "ച": 851,
      "ണ": 852,
      "ദ": 853,
      "പ": 854,
      "യ": 855,
      "ര": 856,
      "ല": 857,
      "ള": 858,
      "വ": 859,
      "ശ": 860,
      "ഷ": 861,
      "ാ": 862,
      "ി": 863,
      "ീ": 864,
      "െ": 865,
      "േ": 866,
      "ൈ": 867,
      "ോ": 868,
      "്": 869,
      "ก": 870,
      "ข": 871,
      "ค": 872,
      "ฆ": 873,
      "ง": 874,
      "จ": 875,
      "ช": 876,
      "ซ": 877,
      "ญ": 878,
      "ฎ": 879,
      "ฐ": 880,
      "ด": 881,
      "ต": 882,
      "ถ": 883,
      "ท": 884,
      "ธ": 885,
      "น": 886,
      "บ": 887,
      "ป": 888,
      "พ": 889,
      "ฟ": 890,
      "ภ": 891,
      "ม": 892,
      "ย": 893,
      "ร": 894,
      "ฤ": 895,
      "ล": 896,
      "ว": 897,
      "ศ": 898,
      "ษ": 899,
      "ส": 900,
      "ห": 901,
      "อ": 902,
      "ฯ": 903,
      "ะ": 904,
      "ั": 905,
      "า": 906,
      "ำ": 907,
      "ิ": 908,
      "ี": 909,
      "ุ": 910,
      "ู": 911,
      "เ": 912,
      "แ": 913,
      "โ": 914,
      "ไ": 915,
      "็": 916,
      "่": 917,
      "้": 918,
      "์": 919,
      "ງ": 920,
      "ຈ": 921,
      "ຊ": 922,
      "ຍ": 923,
      "ດ": 924,
      "ຖ": 925,
      "ທ": 926,
      "ນ": 927,
      "ບ": 928,
      "ພ": 929,
      "ຣ": 930,
      "ລ": 931,
      "ວ": 932,
      "ສ": 933,
      "ຫ": 934,
      "ອ": 935,
      "ະ": 936,
      "າ": 937,
      "ິ": 938,
      "ີ": 939,
      "ຸ": 940,
      "ູ": 941,
      "ົ": 942,
      "ເ": 943,
      "ໄ": 944,
      "່": 945,
      "້": 946,
      "໌": 947,
      "།": 948,
      "བ": 949,
      "ྱ": 950,
      "ა": 951,
      "ბ": 952,
      "გ": 953,
      "დ": 954,
      "ე": 955,
      "ვ": 956,
      "ი": 957,
      "ლ": 958,
      "მ": 959,
      "ნ": 960,
      "რ": 961,
      "უ": 962,
      "ფ": 963,
      "ღ": 964,
      "შ": 965,
      "ც": 966,
      "ხ": 967,
      "ჯ": 968,
      "ት": 969,
      "ኢ": 970,
      "ያ": 971,
      "ዮ": 972,
      "ጵ": 973,
      "Ꮖ": 974,
      "Ꮝ": 975,
      "Ꮵ": 976,
      "ᐃ": 977,
      "ᒡ": 978,
      "ᓗ": 979,
      "ᔭ": 980,
      "ᕕ": 981,
      "ᖅ": 982,
      "ᚠ": 983,
      "ᚡ": 984,
      "ᚢ": 985,
      "ᚤ": 986,
      "ᚬ": 987,
      "ᚮ": 988,
      "ᚯ": 989,
      "ᚽ": 990,
      "ᛁ": 991,
      "ᛅ": 992,
      "ᛆ": 993,
      "ᛦ": 994,
      "ក": 995,
      "ខ": 996,
      "គ": 997,
      "ច": 998,
      "ឆ": 999,
      "ជ": 1000,
      "ញ": 1001,
      "ត": 1002,
      "ទ": 1003,
      "ន": 1004,
      "ប": 1005,
      "ព": 1006,
      "ភ": 1007,
      "ម": 1008,
      "យ": 1009,
      "រ": 1010,
      "វ": 1011,
      "ស": 1012,
      "ហ": 1013,
      "ឡ": 1014,
      "អ": 1015,
      "ា": 1016,
      "ិ": 1017,
      "ី": 1018,
      "ុ": 1019,
      "េ": 1020,
      "ែ": 1021,
      "ំ": 1022,
      "់": 1023,
      "៍": 1024,
      "្": 1025,
      "ᩬ": 1026,
      "ᵐ": 1027,
      "ᵛ": 1028,
      "ḍ": 1029,
      "ḏ": 1030,
      "ḕ": 1031,
      "ḗ": 1032,
      "Ḡ": 1033,
      "ḡ": 1034,
      "Ḥ": 1035,
      "ḥ": 1036,
      "Ḧ": 1037,
      "Ḫ": 1038,
      "ḫ": 1039,
      "Ḳ": 1040,
      "ḳ": 1041,
      "Ḵ": 1042,
      "ḵ": 1043,
      "ḷ": 1044,
      "ḿ": 1045,
      "ṁ": 1046,
      "ṃ": 1047,
      "ṅ": 1048,
      "ṇ": 1049,
      "ṉ": 1050,
      "ṓ": 1051,
      "ṗ": 1052,
      "Ṛ": 1053,
      "ṛ": 1054,
      "ṟ": 1055,
      "Ṣ": 1056,
      "ṣ": 1057,
      "Ṭ": 1058,
      "ṭ": 1059,
      "Ṯ": 1060,
      "ṯ": 1061,
      "ṽ": 1062,
      "Ẓ": 1063,
      "ẓ": 1064,
      "ạ": 1065,
      "ả": 1066,
      "ấ": 1067,
      "ầ": 1068,
      "ẩ": 1069,
      "ẫ": 1070,
      "ậ": 1071,
      "ắ": 1072,
      "ằ": 1073,
      "ặ": 1074,
      "Ẹ": 1075,
      "ẹ": 1076,
      "ế": 1077,
      "ề": 1078,
      "ể": 1079,
      "ễ": 1080,
      "ệ": 1081,
      "ỉ": 1082,
      "ị": 1083,
      "ọ": 1084,
      "ỏ": 1085,
      "ố": 1086,
      "ồ": 1087,
      "ỗ": 1088,
      "ộ": 1089,
      "ớ": 1090,
      "ờ": 1091,
      "Ở": 1092,
      "ở": 1093,
      "ợ": 1094,
      "ủ": 1095,
      "ứ": 1096,
      "ừ": 1097,
      "ử": 1098,
      "ữ": 1099,
      "ự": 1100,
      "ỳ": 1101,
      "ỹ": 1102,
      "ἀ": 1103,
      "ἁ": 1104,
      "ἄ": 1105,
      "ἅ": 1106,
      "Ἀ": 1107,
      "Ἁ": 1108,
      "Ἄ": 1109,
      "Ἅ": 1110,
      "ἐ": 1111,
      "ἑ": 1112,
      "ἔ": 1113,
      "ἕ": 1114,
      "Ἐ": 1115,
      "Ἑ": 1116,
      "ἠ": 1117,
      "ἡ": 1118,
      "ἦ": 1119,
      "ἧ": 1120,
      "Ἡ": 1121,
      "ἰ": 1122,
      "ἱ": 1123,
      "ἴ": 1124,
      "ἶ": 1125,
      "Ἰ": 1126,
      "Ἱ": 1127,
      "ὀ": 1128,
      "ὁ": 1129,
      "ὄ": 1130,
      "ὅ": 1131,
      "Ὁ": 1132,
      "Ὅ": 1133,
      "ὐ": 1134,
      "ὑ": 1135,
      "ὓ": 1136,
      "ὔ": 1137,
      "ὕ": 1138,
      "ὰ": 1139,
      "ὲ": 1140,
      "ὴ": 1141,
      "ὶ": 1142,
      "ὸ": 1143,
      "ὺ": 1144,
      "ὼ": 1145,
      "ᾧ": 1146,
      "ᾱ": 1147,
      "ᾳ": 1148,
      "ᾶ": 1149,
      "᾽": 1150,
      "ῃ": 1151,
      "ῆ": 1152,
      "ῇ": 1153,
      "ῑ": 1154,
      "ῖ": 1155,
      "ῡ": 1156,
      "ῥ": 1157,
      "ῦ": 1158,
      "Ῥ": 1159,
      "ῳ": 1160,
      "ῶ": 1161,
      "ῷ": 1162,
      "῾": 1163,
      "‐": 1164,
      "‑": 1165,
      "‒": 1166,
      "–": 1167,
      "—": 1168,
      "―": 1169,
      "‘": 1170,
      "’": 1171,
      "‚": 1172,
      "‛": 1173,
      "“": 1174,
      "”": 1175,
      "„": 1176,
      "‟": 1177,
      "†": 1178,
      "‡": 1179,
      "•": 1180,
      "…": 1181,
      "‧": 1182,
      "‰": 1183,
      "′": 1184,
      "″": 1185,
      "‹": 1186,
      "›": 1187,
      "‼": 1188,
      "‽": 1189,
      "⁄": 1190,
      "⁎": 1191,
      "⁖": 1192,
      "⁰": 1193,
      "⁶": 1194,
      "₁": 1195,
      "₂": 1196,
      "₆": 1197,
      "₣": 1198,
      "₤": 1199,
      "₩": 1200,
      "€": 1201,
      "₱": 1202,
      "ℂ": 1203,
      "℃": 1204,
      "℉": 1205,
      "№": 1206,
      "ℚ": 1207,
      "ℝ": 1208,
      "℞": 1209,
      "™": 1210,
      "℥": 1211,
      "ℳ": 1212,
      "⅓": 1213,
      "⅔": 1214,
      "⅛": 1215,
      "⅜": 1216,
      "Ⅰ": 1217,
      "Ⅲ": 1218,
      "Ⅺ": 1219,
      "←": 1220,
      "↑": 1221,
      "→": 1222,
      "↓": 1223,
      "↔": 1224,
      "↘": 1225,
      "↩": 1226,
      "↪": 1227,
      "⇌": 1228,
      "⇐": 1229,
      "⇑": 1230,
      "⇒": 1231,
      "⇓": 1232,
      "⇔": 1233,
      "∀": 1234,
      "∂": 1235,
      "∅": 1236,
      "∆": 1237,
      "∇": 1238,
      "∈": 1239,
      "∏": 1240,
      "∑": 1241,
      "−": 1242,
      "∕": 1243,
      "∗": 1244,
      "∙": 1245,
      "√": 1246,
      "∝": 1247,
      "∞": 1248,
      "∠": 1249,
      "∣": 1250,
      "∧": 1251,
      "∨": 1252,
      "∫": 1253,
      "∴": 1254,
      "∼": 1255,
      "≃": 1256,
      "≈": 1257,
      "≠": 1258,
      "≡": 1259,
      "≤": 1260,
      "≥": 1261,
      "≪": 1262,
      "⊂": 1263,
      "⊕": 1264,
      "⊗": 1265,
      "⌘": 1266,
      "③": 1267,
      "Ⓟ": 1268,
      "Ⓣ": 1269,
      "ⓒ": 1270,
      "─": 1271,
      "├": 1272,
      "┬": 1273,
      "╝": 1274,
      "╬": 1275,
      "█": 1276,
      "■": 1277,
      "□": 1278,
      "▣": 1279,
      "▪": 1280,
      "▲": 1281,
      "▸": 1282,
      "►": 1283,
      "▼": 1284,
      "◄": 1285,
      "◆": 1286,
      "◇": 1287,
      "◊": 1288,
      "○": 1289,
      "●": 1290,
      "◦": 1291,
      "◼": 1292,
      "★": 1293,
      "☆": 1294,
      "☎": 1295,
      "☼": 1296,
      "♀": 1297,
      "♂": 1298,
      "♠": 1299,
      "♡": 1300,
      "♣": 1301,
      "♥": 1302,
      "♦": 1303,
      "♭": 1304,
      "♯": 1305,
      "✓": 1306,
      "✗": 1307,
      "❝": 1308,
      "❞": 1309,
      "➔": 1310,
      "⟨": 1311,
      "⟩": 1312,
      "⩾": 1313,
      "ⳟ": 1314,
      "ⳡ": 1315,
      "ⳣ": 1316,
      "ⴰ": 1317,
      "ⴱ": 1318,
      "ⴽ": 1319,
      "ⵉ": 1320,
      "ⵍ": 1321,
      "ⵎ": 1322,
      "ⵓ": 1323,
      "ⵔ": 1324,
      "ⵕ": 1325,
      "ⵖ": 1326,
      "、": 1327,
      "。": 1328,
      "〈": 1329,
      "〉": 1330,
      "《": 1331,
      "》": 1332,
      "「": 1333,
      "」": 1334,
      "『": 1335,
      "』": 1336,
      "【": 1337,
      "】": 1338,
      "〜": 1339,
      "あ": 1340,
      "ぃ": 1341,
      "い": 1342,
      "う": 1343,
      "ぇ": 1344,
      "え": 1345,
      "お": 1346,
      "か": 1347,
      "が": 1348,
      "き": 1349,
      "ぎ": 1350,
      "く": 1351,
      "け": 1352,
      "こ": 1353,
      "ご": 1354,
      "さ": 1355,
      "ざ": 1356,
      "し": 1357,
      "じ": 1358,
      "す": 1359,
      "ず": 1360,
      "せ": 1361,
      "ぜ": 1362,
      "そ": 1363,
      "た": 1364,
      "だ": 1365,
      "ち": 1366,
      "っ": 1367,
      "つ": 1368,
      "づ": 1369,
      "て": 1370,
      "で": 1371,
      "と": 1372,
      "ど": 1373,
      "な": 1374,
      "に": 1375,
      "ね": 1376,
      "の": 1377,
      "は": 1378,
      "ば": 1379,
      "ひ": 1380,
      "ふ": 1381,
      "へ": 1382,
      "べ": 1383,
      "ほ": 1384,
      "ま": 1385,
      "み": 1386,
      "め": 1387,
      "も": 1388,
      "や": 1389,
      "ゅ": 1390,
      "ょ": 1391,
      "よ": 1392,
      "ら": 1393,
      "り": 1394,
      "る": 1395,
      "れ": 1396,
      "ろ": 1397,
      "わ": 1398,
      "を": 1399,
      "ん": 1400,
      "ア": 1401,
      "ィ": 1402,
      "イ": 1403,
      "ウ": 1404,
      "ェ": 1405,
      "エ": 1406,
      "オ": 1407,
      "カ": 1408,
      "キ": 1409,
      "ク": 1410,
      "グ": 1411,
      "コ": 1412,
      "ゴ": 1413,
      "サ": 1414,
      "シ": 1415,
      "ジ": 1416,
      "ス": 1417,
      "ズ": 1418,
      "セ": 1419,
      "ソ": 1420,
      "タ": 1421,
      "ダ": 1422,
      "チ": 1423,
      "ッ": 1424,
      "テ": 1425,
      "デ": 1426,
      "ト": 1427,
      "ド": 1428,
      "ナ": 1429,
      "ニ": 1430,
      "ノ": 1431,
      "ハ": 1432,
      "バ": 1433,
      "パ": 1434,
      "ビ": 1435,
      "ピ": 1436,
      "フ": 1437,
      "ブ": 1438,
      "ヘ": 1439,
      "ベ": 1440,
      "ペ": 1441,
      "ホ": 1442,
      "マ": 1443,
      "ミ": 1444,
      "ム": 1445,
      "ュ": 1446,
      "ョ": 1447,
      "ラ": 1448,
      "リ": 1449,
      "ル": 1450,
      "レ": 1451,
      "ロ": 1452,
      "ワ": 1453,
      "ン": 1454,
      "ヴ": 1455,
      "ヶ": 1456,
      "・": 1457,
      "ー": 1458,
      "一": 1459,
      "丁": 1460,
      "七": 1461,
      "万": 1462,
      "丈": 1463,
      "三": 1464,
      "上": 1465,
      "下": 1466,
      "不": 1467,
      "与": 1468,
      "丑": 1469,
      "世": 1470,
      "东": 1471,
      "両": 1472,
      "並": 1473,
      "中": 1474,
      "临": 1475,
      "久": 1476,
      "之": 1477,
      "乎": 1478,
      "乐": 1479,
      "九": 1480,
      "也": 1481,
      "书": 1482,
      "乳": 1483,
      "了": 1484,
      "予": 1485,
      "争": 1486,
      "事": 1487,
      "二": 1488,
      "于": 1489,
      "云": 1490,
      "井": 1491,
      "亚": 1492,
      "亢": 1493,
      "交": 1494,
      "京": 1495,
      "亮": 1496,
      "人": 1497,
      "什": 1498,
      "仁": 1499,
      "今": 1500,
      "介": 1501,
      "他": 1502,
      "仙": 1503,
      "代": 1504,
      "令": 1505,
      "以": 1506,
      "仮": 1507,
      "仲": 1508,
      "优": 1509,
      "会": 1510,
      "伦": 1511,
      "伯": 1512,
      "但": 1513,
      "低": 1514,
      "佐": 1515,
      "体": 1516,
      "佛": 1517,
      "作": 1518,
      "使": 1519,
      "來": 1520,
      "例": 1521,
      "侠": 1522,
      "侯": 1523,
      "係": 1524,
      "促": 1525,
      "俑": 1526,
      "保": 1527,
      "俟": 1528,
      "信": 1529,
      "修": 1530,
      "俺": 1531,
      "倉": 1532,
      "個": 1533,
      "做": 1534,
      "傅": 1535,
      "働": 1536,
      "像": 1537,
      "儀": 1538,
      "儒": 1539,
      "元": 1540,
      "先": 1541,
      "光": 1542,
      "入": 1543,
      "內": 1544,
      "全": 1545,
      "八": 1546,
      "公": 1547,
      "兴": 1548,
      "兵": 1549,
      "典": 1550,
      "冒": 1551,
      "写": 1552,
      "军": 1553,
      "冶": 1554,
      "凯": 1555,
      "凶": 1556,
      "出": 1557,
      "击": 1558,
      "分": 1559,
      "列": 1560,
      "初": 1561,
      "判": 1562,
      "刻": 1563,
      "則": 1564,
      "劉": 1565,
      "力": 1566,
      "功": 1567,
      "加": 1568,
      "労": 1569,
      "勇": 1570,
      "勋": 1571,
      "勒": 1572,
      "動": 1573,
      "勞": 1574,
      "勤": 1575,
      "包": 1576,
      "匈": 1577,
      "化": 1578,
      "北": 1579,
      "匣": 1580,
      "匪": 1581,
      "匯": 1582,
      "区": 1583,
      "區": 1584,
      "十": 1585,
      "升": 1586,
      "半": 1587,
      "協": 1588,
      "南": 1589,
      "博": 1590,
      "卢": 1591,
      "卫": 1592,
      "危": 1593,
      "即": 1594,
      "卷": 1595,
      "原": 1596,
      "厲": 1597,
      "去": 1598,
      "参": 1599,
      "參": 1600,
      "叉": 1601,
      "叔": 1602,
      "取": 1603,
      "受": 1604,
      "口": 1605,
      "古": 1606,
      "句": 1607,
      "只": 1608,
      "叫": 1609,
      "可": 1610,
      "台": 1611,
      "史": 1612,
      "右": 1613,
      "吃": 1614,
      "合": 1615,
      "吉": 1616,
      "同": 1617,
      "名": 1618,
      "吧": 1619,
      "吳": 1620,
      "吴": 1621,
      "告": 1622,
      "周": 1623,
      "味": 1624,
      "和": 1625,
      "咸": 1626,
      "哀": 1627,
      "品": 1628,
      "員": 1629,
      "唇": 1630,
      "唐": 1631,
      "喃": 1632,
      "喉": 1633,
      "單": 1634,
      "喻": 1635,
      "四": 1636,
      "回": 1637,
      "団": 1638,
      "园": 1639,
      "困": 1640,
      "围": 1641,
      "固": 1642,
      "国": 1643,
      "图": 1644,
      "圆": 1645,
      "國": 1646,
      "在": 1647,
      "地": 1648,
      "坚": 1649,
      "坝": 1650,
      "垣": 1651,
      "城": 1652,
      "域": 1653,
      "基": 1654,
      "報": 1655,
      "塔": 1656,
      "境": 1657,
      "壁": 1658,
      "壩": 1659,
      "士": 1660,
      "外": 1661,
      "夜": 1662,
      "夠": 1663,
      "大": 1664,
      "天": 1665,
      "太": 1666,
      "夫": 1667,
      "央": 1668,
      "失": 1669,
      "头": 1670,
      "奉": 1671,
      "奎": 1672,
      "契": 1673,
      "女": 1674,
      "奴": 1675,
      "好": 1676,
      "如": 1677,
      "始": 1678,
      "委": 1679,
      "姚": 1680,
      "娘": 1681,
      "婁": 1682,
      "婚": 1683,
      "子": 1684,
      "字": 1685,
      "学": 1686,
      "學": 1687,
      "它": 1688,
      "宇": 1689,
      "守": 1690,
      "安": 1691,
      "宋": 1692,
      "完": 1693,
      "宗": 1694,
      "官": 1695,
      "定": 1696,
      "宝": 1697,
      "実": 1698,
      "室": 1699,
      "宫": 1700,
      "害": 1701,
      "家": 1702,
      "宿": 1703,
      "寄": 1704,
      "密": 1705,
      "察": 1706,
      "審": 1707,
      "寮": 1708,
      "寶": 1709,
      "对": 1710,
      "寺": 1711,
      "対": 1712,
      "封": 1713,
      "尉": 1714,
      "對": 1715,
      "小": 1716,
      "尔": 1717,
      "尺": 1718,
      "尾": 1719,
      "局": 1720,
      "居": 1721,
      "屏": 1722,
      "展": 1723,
      "山": 1724,
      "岛": 1725,
      "島": 1726,
      "崇": 1727,
      "川": 1728,
      "州": 1729,
      "工": 1730,
      "左": 1731,
      "巧": 1732,
      "巻": 1733,
      "市": 1734,
      "布": 1735,
      "帖": 1736,
      "師": 1737,
      "常": 1738,
      "幣": 1739,
      "幫": 1740,
      "平": 1741,
      "年": 1742,
      "幽": 1743,
      "库": 1744,
      "庫": 1745,
      "康": 1746,
      "廿": 1747,
      "式": 1748,
      "引": 1749,
      "弧": 1750,
      "張": 1751,
      "強": 1752,
      "彌": 1753,
      "彦": 1754,
      "彪": 1755,
      "彭": 1756,
      "影": 1757,
      "待": 1758,
      "很": 1759,
      "後": 1760,
      "徐": 1761,
      "得": 1762,
      "從": 1763,
      "微": 1764,
      "徹": 1765,
      "心": 1766,
      "必": 1767,
      "忍": 1768,
      "志": 1769,
      "忘": 1770,
      "怀": 1771,
      "态": 1772,
      "性": 1773,
      "您": 1774,
      "情": 1775,
      "想": 1776,
      "意": 1777,
      "愛": 1778,
      "感": 1779,
      "態": 1780,
      "戎": 1781,
      "成": 1782,
      "我": 1783,
      "战": 1784,
      "戦": 1785,
      "戰": 1786,
      "房": 1787,
      "所": 1788,
      "手": 1789,
      "技": 1790,
      "把": 1791,
      "投": 1792,
      "报": 1793,
      "拉": 1794,
      "括": 1795,
      "振": 1796,
      "排": 1797,
      "探": 1798,
      "推": 1799,
      "提": 1800,
      "摄": 1801,
      "擊": 1802,
      "據": 1803,
      "攝": 1804,
      "政": 1805,
      "故": 1806,
      "效": 1807,
      "数": 1808,
      "敷": 1809,
      "文": 1810,
      "斗": 1811,
      "料": 1812,
      "新": 1813,
      "方": 1814,
      "施": 1815,
      "旅": 1816,
      "日": 1817,
      "早": 1818,
      "旱": 1819,
      "时": 1820,
      "昇": 1821,
      "昌": 1822,
      "明": 1823,
      "昏": 1824,
      "星": 1825,
      "春": 1826,
      "是": 1827,
      "昴": 1828,
      "显": 1829,
      "晉": 1830,
      "普": 1831,
      "景": 1832,
      "暑": 1833,
      "曉": 1834,
      "書": 1835,
      "最": 1836,
      "月": 1837,
      "有": 1838,
      "朔": 1839,
      "朗": 1840,
      "望": 1841,
      "朝": 1842,
      "木": 1843,
      "末": 1844,
      "本": 1845,
      "朱": 1846,
      "机": 1847,
      "权": 1848,
      "李": 1849,
      "材": 1850,
      "村": 1851,
      "来": 1852,
      "杨": 1853,
      "東": 1854,
      "松": 1855,
      "板": 1856,
      "林": 1857,
      "果": 1858,
      "柳": 1859,
      "柴": 1860,
      "査": 1861,
      "柿": 1862,
      "栃": 1863,
      "树": 1864,
      "校": 1865,
      "株": 1866,
      "核": 1867,
      "桂": 1868,
      "案": 1869,
      "桥": 1870,
      "梨": 1871,
      "棋": 1872,
      "棣": 1873,
      "楊": 1874,
      "楚": 1875,
      "業": 1876,
      "榊": 1877,
      "榴": 1878,
      "槃": 1879,
      "構": 1880,
      "模": 1881,
      "権": 1882,
      "橋": 1883,
      "機": 1884,
      "次": 1885,
      "正": 1886,
      "此": 1887,
      "武": 1888,
      "歴": 1889,
      "死": 1890,
      "毅": 1891,
      "母": 1892,
      "毗": 1893,
      "毛": 1894,
      "氐": 1895,
      "民": 1896,
      "気": 1897,
      "氣": 1898,
      "水": 1899,
      "汉": 1900,
      "汝": 1901,
      "汾": 1902,
      "沈": 1903,
      "河": 1904,
      "泉": 1905,
      "法": 1906,
      "泥": 1907,
      "泰": 1908,
      "洋": 1909,
      "津": 1910,
      "洱": 1911,
      "洲": 1912,
      "活": 1913,
      "测": 1914,
      "济": 1915,
      "浮": 1916,
      "海": 1917,
      "涅": 1918,
      "涛": 1919,
      "深": 1920,
      "淹": 1921,
      "清": 1922,
      "済": 1923,
      "測": 1924,
      "湖": 1925,
      "源": 1926,
      "溪": 1927,
      "溫": 1928,
      "滂": 1929,
      "滇": 1930,
      "滑": 1931,
      "滔": 1932,
      "滝": 1933,
      "滞": 1934,
      "满": 1935,
      "滩": 1936,
      "漂": 1937,
      "漆": 1938,
      "演": 1939,
      "漢": 1940,
      "漦": 1941,
      "漫": 1942,
      "漯": 1943,
      "潁": 1944,
      "潔": 1945,
      "澄": 1946,
      "澤": 1947,
      "濁": 1948,
      "灘": 1949,
      "灣": 1950,
      "火": 1951,
      "災": 1952,
      "灾": 1953,
      "炉": 1954,
      "点": 1955,
      "為": 1956,
      "烧": 1957,
      "無": 1958,
      "然": 1959,
      "照": 1960,
      "煩": 1961,
      "燃": 1962,
      "燈": 1963,
      "燕": 1964,
      "爭": 1965,
      "爾": 1966,
      "牀": 1967,
      "版": 1968,
      "牙": 1969,
      "牛": 1970,
      "物": 1971,
      "犬": 1972,
      "独": 1973,
      "献": 1974,
      "猴": 1975,
      "猶": 1976,
      "玄": 1977,
      "率": 1978,
      "玉": 1979,
      "王": 1980,
      "环": 1981,
      "班": 1982,
      "現": 1983,
      "球": 1984,
      "琅": 1985,
      "理": 1986,
      "瑞": 1987,
      "瑤": 1988,
      "環": 1989,
      "瓜": 1990,
      "生": 1991,
      "産": 1992,
      "用": 1993,
      "田": 1994,
      "申": 1995,
      "男": 1996,
      "画": 1997,
      "界": 1998,
      "畢": 1999,
      "略": 2000,
      "番": 2001,
      "異": 2002,
      "當": 2003,
      "疑": 2004,
      "病": 2005,
      "痛": 2006,
      "癖": 2007,
      "発": 2008,
      "白": 2009,
      "百": 2010,
      "的": 2011,
      "皇": 2012,
      "盘": 2013,
      "目": 2014,
      "直": 2015,
      "県": 2016,
      "真": 2017,
      "眨": 2018,
      "眼": 2019,
      "瞧": 2020,
      "知": 2021,
      "石": 2022,
      "研": 2023,
      "硯": 2024,
      "磁": 2025,
      "示": 2026,
      "社": 2027,
      "祖": 2028,
      "神": 2029,
      "禅": 2030,
      "福": 2031,
      "禪": 2032,
      "禹": 2033,
      "私": 2034,
      "秉": 2035,
      "科": 2036,
      "秘": 2037,
      "秦": 2038,
      "種": 2039,
      "積": 2040,
      "穴": 2041,
      "究": 2042,
      "空": 2043,
      "穿": 2044,
      "窮": 2045,
      "立": 2046,
      "站": 2047,
      "竜": 2048,
      "竟": 2049,
      "章": 2050,
      "端": 2051,
      "笑": 2052,
      "筆": 2053,
      "等": 2054,
      "简": 2055,
      "箕": 2056,
      "管": 2057,
      "箸": 2058,
      "米": 2059,
      "粉": 2060,
      "粟": 2061,
      "精": 2062,
      "糊": 2063,
      "糕": 2064,
      "糧": 2065,
      "紀": 2066,
      "紙": 2067,
      "索": 2068,
      "紫": 2069,
      "細": 2070,
      "組": 2071,
      "経": 2072,
      "結": 2073,
      "絡": 2074,
      "統": 2075,
      "絲": 2076,
      "絵": 2077,
      "經": 2078,
      "綫": 2079,
      "縣": 2080,
      "總": 2081,
      "繁": 2082,
      "織": 2083,
      "绎": 2084,
      "经": 2085,
      "维": 2086,
      "缺": 2087,
      "网": 2088,
      "罗": 2089,
      "置": 2090,
      "羅": 2091,
      "美": 2092,
      "群": 2093,
      "羽": 2094,
      "翼": 2095,
      "老": 2096,
      "考": 2097,
      "者": 2098,
      "而": 2099,
      "耐": 2100,
      "耳": 2101,
      "联": 2102,
      "聞": 2103,
      "聰": 2104,
      "聲": 2105,
      "職": 2106,
      "肇": 2107,
      "胃": 2108,
      "能": 2109,
      "脣": 2110,
      "腹": 2111,
      "臨": 2112,
      "自": 2113,
      "至": 2114,
      "舆": 2115,
      "興": 2116,
      "舉": 2117,
      "舌": 2118,
      "船": 2119,
      "良": 2120,
      "色": 2121,
      "芋": 2122,
      "芝": 2123,
      "芬": 2124,
      "苏": 2125,
      "英": 2126,
      "茶": 2127,
      "草": 2128,
      "荸": 2129,
      "荼": 2130,
      "莊": 2131,
      "莱": 2132,
      "莲": 2133,
      "萍": 2134,
      "葉": 2135,
      "著": 2136,
      "蒋": 2137,
      "蒙": 2138,
      "蓬": 2139,
      "蔡": 2140,
      "蔣": 2141,
      "薪": 2142,
      "薯": 2143,
      "薺": 2144,
      "藏": 2145,
      "藤": 2146,
      "蘇": 2147,
      "虎": 2148,
      "虛": 2149,
      "蛍": 2150,
      "蠡": 2151,
      "血": 2152,
      "行": 2153,
      "術": 2154,
      "衛": 2155,
      "衡": 2156,
      "衢": 2157,
      "袋": 2158,
      "襄": 2159,
      "西": 2160,
      "要": 2161,
      "見": 2162,
      "觀": 2163,
      "角": 2164,
      "觜": 2165,
      "言": 2166,
      "計": 2167,
      "訊": 2168,
      "記": 2169,
      "設": 2170,
      "許": 2171,
      "評": 2172,
      "話": 2173,
      "詳": 2174,
      "認": 2175,
      "語": 2176,
      "誠": 2177,
      "說": 2178,
      "読": 2179,
      "調": 2180,
      "談": 2181,
      "論": 2182,
      "諜": 2183,
      "證": 2184,
      "譜": 2185,
      "護": 2186,
      "记": 2187,
      "论": 2188,
      "评": 2189,
      "语": 2190,
      "诸": 2191,
      "象": 2192,
      "貞": 2193,
      "買": 2194,
      "資": 2195,
      "賞": 2196,
      "購": 2197,
      "贡": 2198,
      "资": 2199,
      "赢": 2200,
      "赵": 2201,
      "超": 2202,
      "越": 2203,
      "趣": 2204,
      "足": 2205,
      "跡": 2206,
      "蹄": 2207,
      "蹟": 2208,
      "軍": 2209,
      "転": 2210,
      "軫": 2211,
      "軾": 2212,
      "輕": 2213,
      "轉": 2214,
      "车": 2215,
      "轻": 2216,
      "轼": 2217,
      "辛": 2218,
      "辞": 2219,
      "辭": 2220,
      "農": 2221,
      "込": 2222,
      "近": 2223,
      "这": 2224,
      "迷": 2225,
      "适": 2226,
      "透": 2227,
      "途": 2228,
      "這": 2229,
      "通": 2230,
      "造": 2231,
      "連": 2232,
      "進": 2233,
      "遂": 2234,
      "遍": 2235,
      "道": 2236,
      "達": 2237,
      "違": 2238,
      "遠": 2239,
      "還": 2240,
      "邑": 2241,
      "邦": 2242,
      "邪": 2243,
      "部": 2244,
      "鄭": 2245,
      "酬": 2246,
      "采": 2247,
      "里": 2248,
      "重": 2249,
      "鈴": 2250,
      "鉤": 2251,
      "銀": 2252,
      "錯": 2253,
      "鎮": 2254,
      "鐵": 2255,
      "钞": 2256,
      "长": 2257,
      "門": 2258,
      "開": 2259,
      "間": 2260,
      "関": 2261,
      "门": 2262,
      "防": 2263,
      "阳": 2264,
      "阿": 2265,
      "陈": 2266,
      "降": 2267,
      "院": 2268,
      "除": 2269,
      "陳": 2270,
      "陷": 2271,
      "陸": 2272,
      "陽": 2273,
      "際": 2274,
      "雀": 2275,
      "雨": 2276,
      "雲": 2277,
      "電": 2278,
      "需": 2279,
      "震": 2280,
      "靑": 2281,
      "非": 2282,
      "面": 2283,
      "韓": 2284,
      "韩": 2285,
      "音": 2286,
      "韻": 2287,
      "項": 2288,
      "順": 2289,
      "須": 2290,
      "預": 2291,
      "頓": 2292,
      "頭": 2293,
      "顯": 2294,
      "频": 2295,
      "風": 2296,
      "食": 2297,
      "飯": 2298,
      "飲": 2299,
      "餅": 2300,
      "館": 2301,
      "首": 2302,
      "香": 2303,
      "馬": 2304,
      "騫": 2305,
      "马": 2306,
      "骊": 2307,
      "验": 2308,
      "體": 2309,
      "高": 2310,
      "鬼": 2311,
      "魏": 2312,
      "魔": 2313,
      "魚": 2314,
      "鸟": 2315,
      "鸿": 2316,
      "麓": 2317,
      "麼": 2318,
      "黄": 2319,
      "點": 2320,
      "齐": 2321,
      "齒": 2322,
      "齡": 2323,
      "龍": 2324,
      "Ꙁ": 2325,
      "ꙁ": 2326,
      "가": 2327,
      "감": 2328,
      "건": 2329,
      "결": 2330,
      "계": 2331,
      "공": 2332,
      "과": 2333,
      "구": 2334,
      "국": 2335,
      "금": 2336,
      "급": 2337,
      "기": 2338,
      "길": 2339,
      "나": 2340,
      "남": 2341,
      "내": 2342,
      "낸": 2343,
      "녀": 2344,
      "년": 2345,
      "니": 2346,
      "다": 2347,
      "대": 2348,
      "동": 2349,
      "로": 2350,
      "료": 2351,
      "류": 2352,
      "르": 2353,
      "를": 2354,
      "리": 2355,
      "만": 2356,
      "문": 2357,
      "물": 2358,
      "미": 2359,
      "민": 2360,
      "박": 2361,
      "발": 2362,
      "법": 2363,
      "베": 2364,
      "변": 2365,
      "병": 2366,
      "봉": 2367,
      "비": 2368,
      "사": 2369,
      "삯": 2370,
      "산": 2371,
      "상": 2372,
      "새": 2373,
      "생": 2374,
      "서": 2375,
      "선": 2376,
      "설": 2377,
      "성": 2378,
      "수": 2379,
      "스": 2380,
      "시": 2381,
      "신": 2382,
      "아": 2383,
      "안": 2384,
      "알": 2385,
      "앞": 2386,
      "어": 2387,
      "에": 2388,
      "여": 2389,
      "역": 2390,
      "연": 2391,
      "온": 2392,
      "와": 2393,
      "왜": 2394,
      "우": 2395,
      "월": 2396,
      "유": 2397,
      "윤": 2398,
      "은": 2399,
      "의": 2400,
      "인": 2401,
      "임": 2402,
      "입": 2403,
      "자": 2404,
      "잡": 2405,
      "전": 2406,
      "절": 2407,
      "조": 2408,
      "주": 2409,
      "지": 2410,
      "진": 2411,
      "창": 2412,
      "책": 2413,
      "처": 2414,
      "추": 2415,
      "췌": 2416,
      "치": 2417,
      "캐": 2418,
      "커": 2419,
      "탄": 2420,
      "탕": 2421,
      "투": 2422,
      "트": 2423,
      "파": 2424,
      "플": 2425,
      "학": 2426,
      "한": 2427,
      "항": 2428,
      "해": 2429,
      "호": 2430,
      "화": 2431,
      "활": 2432,
      "회": 2433,
      "": 2434,
      "ﬀ": 2435,
      "ﬁ": 2436,
      "ﬂ": 2437,
      "ﬃ": 2438,
      "！": 2439,
      "（": 2440,
      "）": 2441,
      "，": 2442,
      "．": 2443,
      "０": 2444,
      "１": 2445,
      "２": 2446,
      "３": 2447,
      "４": 2448,
      "５": 2449,
      "６": 2450,
      "７": 2451,
      "８": 2452,
      "９": 2453,
      "：": 2454,
      "；": 2455,
      "？": 2456,
      "Ａ": 2457,
      "Ｂ": 2458,
      "Ｃ": 2459,
      "Ｄ": 2460,
      "Ｅ": 2461,
      "Ｆ": 2462,
      "Ｇ": 2463,
      "Ｈ": 2464,
      "Ｉ": 2465,
      "Ｋ": 2466,
      "Ｌ": 2467,
      "Ｍ": 2468,
      "Ｎ": 2469,
      "Ｏ": 2470,
      "Ｐ": 2471,
      "Ｑ": 2472,
      "Ｒ": 2473,
      "Ｓ": 2474,
      "Ｔ": 2475,
      "Ｕ": 2476,
      "Ｙ": 2477,
      "［": 2478,
      "ａ": 2479,
      "ｃ": 2480,
      "ｄ": 2481,
      "ｅ": 2482,
      "ｇ": 2483,
      "ｈ": 2484,
      "ｉ": 2485,
      "ｋ": 2486,
      "ｌ": 2487,
      "ｍ": 2488,
      "ｎ": 2489,
      "ｏ": 2490,
      "ｐ": 2491,
      "ｑ": 2492,
      "ｒ": 2493,
      "ｔ": 2494,
      "ｕ": 2495,
      "ｖ": 2496,
      "ｗ": 2497,
      "ｙ": 2498,
      "～": 2499,
      "�": 2500,
      "🌎": 2501,
      "🌐": 2502,
      "😭": 2503,
      "𡨸": 2504,
      "th": 2505,
      "in": 2506,
      "er": 2507,
      "an": 2508,
      "the": 2509,
      "on": 2510,
      "re": 2511,
      "at": 2512,
      "en": 2513,
      "or": 2514,
      "es": 2515,
      "al": 2516,
      "is": 2517,
      "ed": 2518,
      "of": 2519,
      "and": 2520,
      "ar": 2521,
      "to": 2522,
      "ou": 2523,
      "ing": 2524,
      "as": 2525,
      "it": 2526,
      "ic": 2527,
      "ion": 2528,
      "le": 2529,
      "st": 2530,
      "ro": 2531,
      "ent": 2532,
      "ch": 2533,
      "se": 2534,
      "il": 2535,
      "ct": 2536,
      "he": 2537,
      "om": 2538,
      "ve": 2539,
      "be": 2540,
      "ly": 2541,
      "de": 2542,
      "for": 2543,
      "ol": 2544,
      "ation": 2545,
      "ce": 2546,
      "im": 2547,
      "am": 2548,
      "ow": 2549,
      "su": 2550,
      "ad": 2551,
      "ig": 2552,
      "ver": 2553,
      "are": 2554,
      "that": 2555,
      "wh": 2556,
      "ter": 2557,
      "ir": 2558,
      "con": 2559,
      "id": 2560,
      "ab": 2561,
      "ur": 2562,
      "ay": 2563,
      "pro": 2564,
      "The": 2565,
      "ot": 2566,
      "un": 2567,
      "ith": 2568,
      "ge": 2569,
      "ut": 2570,
      "us": 2571,
      "pe": 2572,
      "ul": 2573,
      "mo": 2574,
      "ra": 2575,
      "with": 2576,
      "lo": 2577,
      "ther": 2578,
      "com": 2579,
      "res": 2580,
      "ex": 2581,
      "ac": 2582,
      "ment": 2583,
      "ts": 2584,
      "if": 2585,
      "per": 2586,
      "ne": 2587,
      "our": 2588,
      "ate": 2589,
      "ha": 2590,
      "all": 2591,
      "em": 2592,
      "ies": 2593,
      "pl": 2594,
      "el": 2595,
      "ill": 2596,
      "by": 2597,
      "od": 2598,
      "tr": 2599,
      "oun": 2600,
      "ess": 2601,
      "ers": 2602,
      "est": 2603,
      "ity": 2604,
      "so": 2605,
      "ke": 2606,
      "rom": 2607,
      "po": 2608,
      "igh": 2609,
      "ere": 2610,
      "ive": 2611,
      "iv": 2612,
      "was": 2613,
      "ma": 2614,
      "ld": 2615,
      "qu": 2616,
      "et": 2617,
      "from": 2618,
      "ist": 2619,
      "um": 2620,
      "out": 2621,
      "ci": 2622,
      "ap": 2623,
      "In": 2624,
      "ta": 2625,
      "we": 2626,
      "not": 2627,
      "te": 2628,
      "can": 2629,
      "sh": 2630,
      "op": 2631,
      "art": 2632,
      "Th": 2633,
      "ag": 2634,
      "cl": 2635,
      "00": 2636,
      "ical": 2637,
      "ant": 2638,
      "one": 2639,
      "ud": 2640,
      "act": 2641,
      "have": 2642,
      "fe": 2643,
      "wor": 2644,
      "ib": 2645,
      "co": 2646,
      "du": 2647,
      "ear": 2648,
      "this": 2649,
      "ich": 2650,
      "ort": 2651,
      "ure": 2652,
      "ph": 2653,
      "ould": 2654,
      "you": 2655,
      "gh": 2656,
      "ine": 2657,
      "der": 2658,
      "man": 2659,
      "ated": 2660,
      "ions": 2661,
      "19": 2662,
      "li": 2663,
      "do": 2664,
      "me": 2665,
      "pr": 2666,
      "use": 2667,
      "dis": 2668,
      "gr": 2669,
      "ome": 2670,
      "ard": 2671,
      "end": 2672,
      "ans": 2673,
      "ia": 2674,
      "ight": 2675,
      "other": 2676,
      "str": 2677,
      "ough": 2678,
      "which": 2679,
      "their": 2680,
      "age": 2681,
      "ally": 2682,
      "ind": 2683,
      "ous": 2684,
      "ev": 2685,
      "ide": 2686,
      "form": 2687,
      "ound": 2688,
      "ence": 2689,
      "fo": 2690,
      "ip": 2691,
      "iz": 2692,
      "ast": 2693,
      "ish": 2694,
      "pre": 2695,
      "they": 2696,
      "able": 2697,
      "ary": 2698,
      "more": 2699,
      "ong": 2700,
      "ach": 2701,
      "port": 2702,
      "ca": 2703,
      "cre": 2704,
      "has": 2705,
      "up": 2706,
      "ass": 2707,
      "will": 2708,
      "og": 2709,
      "ction": 2710,
      "its": 2711,
      "low": 2712,
      "go": 2713,
      "fer": 2714,
      "ain": 2715,
      "ial": 2716,
      "ater": 2717,
      "were": 2718,
      "ations": 2719,
      "ll": 2720,
      "but": 2721,
      "ple": 2722,
      "ef": 2723,
      "ks": 2724,
      "ire": 2725,
      "sy": 2726,
      "tim": 2727,
      "ild": 2728,
      "pres": 2729,
      "king": 2730,
      "now": 2731,
      "ust": 2732,
      "av": 2733,
      "bl": 2734,
      "ren": 2735,
      "ame": 2736,
      "your": 2737,
      "cent": 2738,
      "who": 2739,
      "spe": 2740,
      "no": 2741,
      "ber": 2742,
      "bo": 2743,
      "ew": 2744,
      "part": 2745,
      "his": 2746,
      "ase": 2747,
      "comm": 2748,
      "pos": 2749,
      "cr": 2750,
      "ign": 2751,
      "ice": 2752,
      "gen": 2753,
      "ents": 2754,
      "also": 2755,
      "ser": 2756,
      "ory": 2757,
      "ian": 2758,
      "af": 2759,
      "ition": 2760,
      ").": 2761,
      "some": 2762,
      "St": 2763,
      "ace": 2764,
      "ite": 2765,
      "about": 2766,
      "may": 2767,
      "cess": 2768,
      "ty": 2769,
      "than": 2770,
      "sp": 2771,
      "ell": 2772,
      "year": 2773,
      "ance": 2774,
      "Ch": 2775,
      "ces": 2776,
      "It": 2777,
      "ens": 2778,
      "stud": 2779,
      "very": 2780,
      "cont": 2781,
      "This": 2782,
      "way": 2783,
      "int": 2784,
      "inter": 2785,
      "Wh": 2786,
      "col": 2787,
      "An": 2788,
      "vi": 2789,
      "ack": 2790,
      "any": 2791,
      "ree": 2792,
      "ang": 2793,
      "over": 2794,
      "ors": 2795,
      "200": 2796,
      "cor": 2797,
      "ates": 2798,
      "ep": 2799,
      "20": 2800,
      "them": 2801,
      "reat": 2802,
      "sa": 2803,
      "been": 2804,
      "mer": 2805,
      "most": 2806,
      "arch": 2807,
      "had": 2808,
      "Un": 2809,
      "fect": 2810,
      "ile": 2811,
      "ople": 2812,
      "own": 2813,
      "olog": 2814,
      "tw": 2815,
      "tain": 2816,
      "there": 2817,
      "ob": 2818,
      "new": 2819,
      "tra": 2820,
      "cur": 2821,
      "pt": 2822,
      "bet": 2823,
      "into": 2824,
      "time": 2825,
      "used": 2826,
      "land": 2827,
      "iver": 2828,
      "when": 2829,
      "des": 2830,
      "ult": 2831,
      "work": 2832,
      "br": 2833,
      "alth": 2834,
      "day": 2835,
      "fl": 2836,
      "ings": 2837,
      "prov": 2838,
      "these": 2839,
      "ok": 2840,
      "cer": 2841,
      "ational": 2842,
      "comp": 2843,
      "fir": 2844,
      "people": 2845,
      "dif": 2846,
      "like": 2847,
      "lop": 2848,
      "ied": 2849,
      "ms": 2850,
      "ck": 2851,
      "lect": 2852,
      "would": 2853,
      "je": 2854,
      "incl": 2855,
      "fore": 2856,
      "know": 2857,
      "such": 2858,
      "how": 2859,
      "med": 2860,
      "ful": 2861,
      "row": 2862,
      "only": 2863,
      "rel": 2864,
      "reg": 2865,
      "ds": 2866,
      "stem": 2867,
      "min": 2868,
      "rough": 2869,
      "ual": 2870,
      "cause": 2871,
      "ments": 2872,
      "coun": 2873,
      "cho": 2874,
      "ific": 2875,
      "mon": 2876,
      "son": 2877,
      "He": 2878,
      "high": 2879,
      "fr": 2880,
      "under": 2881,
      "ue": 2882,
      "ext": 2883,
      "),": 2884,
      "cy": 2885,
      "velop": 2886,
      "sur": 2887,
      "ject": 2888,
      "ities": 2889,
      "produ": 2890,
      "ose": 2891,
      "la": 2892,
      "ys": 2893,
      "child": 2894,
      "18": 2895,
      "ating": 2896,
      "many": 2897,
      "10": 2898,
      "dr": 2899,
      "ced": 2900,
      "first": 2901,
      "ative": 2902,
      "Re": 2903,
      "hel": 2904,
      "ubl": 2905,
      "what": 2906,
      "ning": 2907,
      "sel": 2908,
      "two": 2909,
      "As": 2910,
      "fic": 2911,
      "ail": 2912,
      "cial": 2913,
      "ics": 2914,
      "develop": 2915,
      "old": 2916,
      "ath": 2917,
      "arr": 2918,
      "red": 2919,
      "ular": 2920,
      "ins": 2921,
      "system": 2922,
      "through": 2923,
      "get": 2924,
      "need": 2925,
      "rit": 2926,
      "vel": 2927,
      "os": 2928,
      "cal": 2929,
      "ise": 2930,
      "ak": 2931,
      "att": 2932,
      "serv": 2933,
      "her": 2934,
      "ever": 2935,
      "lear": 2936,
      "ict": 2937,
      "water": 2938,
      "ten": 2939,
      "par": 2940,
      "ress": 2941,
      "ps": 2942,
      "ble": 2943,
      "au": 2944,
      "years": 2945,
      "lar": 2946,
      "search": 2947,
      "les": 2948,
      "well": 2949,
      "oc": 2950,
      "Amer": 2951,
      "uring": 2952,
      "Americ": 2953,
      "ons": 2954,
      "where": 2955,
      "als": 2956,
      "sub": 2957,
      "ting": 2958,
      "tern": 2959,
      "sup": 2960,
      "stru": 2961,
      "read": 2962,
      "ange": 2963,
      "ible": 2964,
      "add": 2965,
      "less": 2966,
      "differ": 2967,
      "ased": 2968,
      "ivers": 2969,
      "ution": 2970,
      "cond": 2971,
      "sul": 2972,
      "bu": 2973,
      "ick": 2974,
      "sion": 2975,
      "ited": 2976,
      "formation": 2977,
      "pol": 2978,
      "For": 2979,
      "Ar": 2980,
      "air": 2981,
      "Al": 2982,
      "En": 2983,
      "ie": 2984,
      "lif": 2985,
      "We": 2986,
      "should": 2987,
      "gan": 2988,
      "De": 2989,
      "cons": 2990,
      "stand": 2991,
      "vent": 2992,
      "ween": 2993,
      "my": 2994,
      "ility": 2995,
      "call": 2996,
      "vir": 2997,
      "ists": 2998,
      "could": 2999,
      "uch": 3000,
      "spec": 3001,
      "12": 3002,
      "mar": 3003,
      "..": 3004,
      "ho": 3005,
      "come": 3006,
      "long": 3007,
      "ted": 3008,
      "then": 3009,
      "requ": 3010,
      "said": 3011,
      "ures": 3012,
      "ily": 3013,
      "between": 3014,
      "If": 3015,
      "num": 3016,
      "fin": 3017,
      "plan": 3018,
      "ari": 3019,
      "includ": 3020,
      "Con": 3021,
      "ural": 3022,
      "see": 3023,
      "try": 3024,
      "ident": 3025,
      "fact": 3026,
      "say": 3027,
      "ese": 3028,
      "after": 3029,
      "thing": 3030,
      "gy": 3031,
      "research": 3032,
      "vol": 3033,
      "gener": 3034,
      "ss": 3035,
      "publ": 3036,
      "found": 3037,
      "health": 3038,
      "just": 3039,
      "help": 3040,
      "gram": 3041,
      "chool": 3042,
      "exam": 3043,
      "trans": 3044,
      ".\"": 3045,
      "vis": 3046,
      "peri": 3047,
      "lin": 3048,
      "uc": 3049,
      "eng": 3050,
      "urn": 3051,
      "each": 3052,
      "Com": 3053,
      "pat": 3054,
      "incre": 3055,
      "sm": 3056,
      "led": 3057,
      "199": 3058,
      "ism": 3059,
      "fol": 3060,
      "New": 3061,
      "effect": 3062,
      "even": 3063,
      "make": 3064,
      "fun": 3065,
      "because": 3066,
      "ters": 3067,
      "set": 3068,
      "blo": 3069,
      "hum": 3070,
      "ology": 3071,
      "world": 3072,
      "ives": 3073,
      "sim": 3074,
      "those": 3075,
      "Pro": 3076,
      "ature": 3077,
      "life": 3078,
      "information": 3079,
      "nor": 3080,
      "chn": 3081,
      "val": 3082,
      "ness": 3083,
      "off": 3084,
      "sure": 3085,
      "import": 3086,
      "di": 3087,
      "mis": 3088,
      "sci": 3089,
      "ris": 3090,
      "main": 3091,
      "sign": 3092,
      "11": 3093,
      "present": 3094,
      "fam": 3095,
      "ug": 3096,
      "cord": 3097,
      "But": 3098,
      "soci": 3099,
      "ically": 3100,
      "pp": 3101,
      "person": 3102,
      "resul": 3103,
      "being": 3104,
      "How": 3105,
      "ower": 3106,
      "children": 3107,
      "partic": 3108,
      "different": 3109,
      "iversity": 3110,
      "cept": 3111,
      "ves": 3112,
      "ices": 3113,
      "ases": 3114,
      "ener": 3115,
      "Mo": 3116,
      "gu": 3117,
      "cus": 3118,
      "though": 3119,
      "ract": 3120,
      "cell": 3121,
      "arm": 3122,
      "ata": 3123,
      "mem": 3124,
      "self": 3125,
      "bod": 3126,
      "ety": 3127,
      "back": 3128,
      "during": 3129,
      "Se": 3130,
      "made": 3131,
      "rain": 3132,
      "They": 3133,
      "There": 3134,
      "ix": 3135,
      "same": 3136,
      "study": 3137,
      "bre": 3138,
      "car": 3139,
      "So": 3140,
      "much": 3141,
      "level": 3142,
      "ward": 3143,
      "sk": 3144,
      "every": 3145,
      "follow": 3146,
      "commun": 3147,
      "ized": 3148,
      "ages": 3149,
      "treat": 3150,
      "grou": 3151,
      "cap": 3152,
      "por": 3153,
      "hist": 3154,
      "state": 3155,
      "ude": 3156,
      ",\"": 3157,
      "him": 3158,
      "||": 3159,
      "light": 3160,
      "gl": 3161,
      "food": 3162,
      "view": 3163,
      "resp": 3164,
      "process": 3165,
      "using": 3166,
      "iel": 3167,
      "lead": 3168,
      "ider": 3169,
      "she": 3170,
      "ric": 3171,
      "proble": 3172,
      "stit": 3173,
      "io": 3174,
      "ize": 3175,
      "poss": 3176,
      "cted": 3177,
      "gra": 3178,
      "sol": 3179,
      "gg": 3180,
      "ished": 3181,
      "grow": 3182,
      "char": 3183,
      "ved": 3184,
      "15": 3185,
      "000": 3186,
      "small": 3187,
      "ton": 3188,
      "before": 3189,
      "ince": 3190,
      "ious": 3191,
      "school": 3192,
      "program": 3193,
      "both": 3194,
      "pop": 3195,
      ".,": 3196,
      "find": 3197,
      "techn": 3198,
      "clo": 3199,
      "vari": 3200,
      "does": 3201,
      "gover": 3202,
      "ient": 3203,
      "line": 3204,
      "omen": 3205,
      "dise": 3206,
      "called": 3207,
      "ger": 3208,
      "show": 3209,
      "ute": 3210,
      "mal": 3211,
      "dep": 3212,
      "--": 3213,
      "number": 3214,
      "organ": 3215,
      "power": 3216,
      "take": 3217,
      "again": 3218,
      "prote": 3219,
      "important": 3220,
      "aw": 3221,
      "place": 3222,
      "sto": 3223,
      "gre": 3224,
      "lit": 3225,
      "13": 3226,
      "play": 3227,
      "viron": 3228,
      "And": 3229,
      "sing": 3230,
      "ink": 3231,
      "care": 3232,
      "hy": 3233,
      "good": 3234,
      "tem": 3235,
      "ants": 3236,
      "ars": 3237,
      "trib": 3238,
      "ven": 3239,
      "comple": 3240,
      "down": 3241,
      "cover": 3242,
      "mat": 3243,
      "contro": 3244,
      "On": 3245,
      "don": 3246,
      "American": 3247,
      "Be": 3248,
      "test": 3249,
      "ner": 3250,
      "leg": 3251,
      "known": 3252,
      "often": 3253,
      "ctor": 3254,
      "govern": 3255,
      "three": 3256,
      "dire": 3257,
      "To": 3258,
      "while": 3259,
      "ving": 3260,
      "ways": 3261,
      "students": 3262,
      "lim": 3263,
      "ord": 3264,
      "must": 3265,
      "elect": 3266,
      "ret": 3267,
      "del": 3268,
      "sever": 3269,
      "let": 3270,
      "ash": 3271,
      "right": 3272,
      "order": 3273,
      "body": 3274,
      "ivid": 3275,
      "plic": 3276,
      "human": 3277,
      "including": 3278,
      "put": 3279,
      "17": 3280,
      "ub": 3281,
      "University": 3282,
      "class": 3283,
      "ship": 3284,
      "issu": 3285,
      "public": 3286,
      "tle": 3287,
      "net": 3288,
      "gn": 3289,
      "men": 3290,
      "large": 3291,
      "ides": 3292,
      "pa": 3293,
      "vironment": 3294,
      "data": 3295,
      "Is": 3296,
      "hand": 3297,
      "pare": 3298,
      "contin": 3299,
      "conom": 3300,
      "cts": 3301,
      "ulation": 3302,
      "allow": 3303,
      "exp": 3304,
      "design": 3305,
      "tal": 3306,
      "flu": 3307,
      "Res": 3308,
      "did": 3309,
      "ability": 3310,
      "appro": 3311,
      "example": 3312,
      ".”": 3313,
      "sum": 3314,
      "outh": 3315,
      "ather": 3316,
      "activ": 3317,
      "16": 3318,
      "ury": 3319,
      "ft": 3320,
      "When": 3321,
      "ality": 3322,
      "ouse": 3323,
      "ste": 3324,
      "iving": 3325,
      "kes": 3326,
      "appe": 3327,
      "Ex": 3328,
      "cour": 3329,
      "These": 3330,
      "point": 3331,
      "What": 3332,
      "blood": 3333,
      "redu": 3334,
      "ry": 3335,
      "equ": 3336,
      "itions": 3337,
      "great": 3338,
      "ences": 3339,
      "ually": 3340,
      "You": 3341,
      "oper": 3342,
      "change": 3343,
      "uro": 3344,
      "bal": 3345,
      "ier": 3346,
      "came": 3347,
      "mot": 3348,
      "mill": 3349,
      "around": 3350,
      "ww": 3351,
      "iven": 3352,
      "bi": 3353,
      "ital": 3354,
      "sed": 3355,
      "mp": 3356,
      "educ": 3357,
      "ional": 3358,
      "based": 3359,
      "chang": 3360,
      "At": 3361,
      "50": 3362,
      "support": 3363,
      "No": 3364,
      "nat": 3365,
      "consider": 3366,
      "Pr": 3367,
      "build": 3368,
      "writ": 3369,
      "disease": 3370,
      "30": 3371,
      "und": 3372,
      "cle": 3373,
      "ah": 3374,
      "Wor": 3375,
      "bers": 3376,
      "acter": 3377,
      "nam": 3378,
      "still": 3379,
      "term": 3380,
      "rad": 3381,
      "dist": 3382,
      "ran": 3383,
      "percent": 3384,
      "United": 3385,
      "mil": 3386,
      "head": 3387,
      "face": 3388,
      "government": 3389,
      "ately": 3390,
      "says": 3391,
      "Bo": 3392,
      "war": 3393,
      "quest": 3394,
      "rent": 3395,
      "econom": 3396,
      "dec": 3397,
      "Ad": 3398,
      "ources": 3399,
      "gin": 3400,
      "move": 3401,
      "few": 3402,
      "report": 3403,
      "pass": 3404,
      "ights": 3405,
      "14": 3406,
      "ross": 3407,
      "Nor": 3408,
      "prof": 3409,
      "phys": 3410,
      "ply": 3411,
      "ived": 3412,
      "ood": 3413,
      "uses": 3414,
      "loc": 3415,
      "thor": 3416,
      "energy": 3417,
      "Jo": 3418,
      "law": 3419,
      "ired": 3420,
      "aterial": 3421,
      "ium": 3422,
      "might": 3423,
      "risk": 3424,
      "last": 3425,
      "inv": 3426,
      "eas": 3427,
      "ization": 3428,
      "struct": 3429,
      "enter": 3430,
      "ron": 3431,
      "Col": 3432,
      "national": 3433,
      "bor": 3434,
      "adv": 3435,
      "name": 3436,
      "Ph": 3437,
      "early": 3438,
      "met": 3439,
      "area": 3440,
      "teach": 3441,
      "development": 3442,
      "pur": 3443,
      "National": 3444,
      "ids": 3445,
      "without": 3446,
      "unt": 3447,
      "pain": 3448,
      "ark": 3449,
      "ield": 3450,
      "ason": 3451,
      "cording": 3452,
      "ividual": 3453,
      "scient": 3454,
      "Le": 3455,
      "another": 3456,
      "ond": 3457,
      "anim": 3458,
      "ask": 3459,
      "species": 3460,
      "Co": 3461,
      "depend": 3462,
      "ines": 3463,
      "typ": 3464,
      "environment": 3465,
      "sit": 3466,
      "ave": 3467,
      "women": 3468,
      "jor": 3469,
      "within": 3470,
      "ared": 3471,
      "common": 3472,
      "beli": 3473,
      "contain": 3474,
      "include": 3475,
      "usu": 3476,
      "meas": 3477,
      "ele": 3478,
      "States": 3479,
      "too": 3480,
      "near": 3481,
      "ense": 3482,
      "non": 3483,
      "start": 3484,
      "inal": 3485,
      "possible": 3486,
      "ients": 3487,
      "ues": 3488,
      "avail": 3489,
      "Can": 3490,
      "site": 3491,
      "dom": 3492,
      "pract": 3493,
      "198": 3494,
      "ator": 3495,
      "pot": 3496,
      "book": 3497,
      "Or": 3498,
      "bir": 3499,
      "ples": 3500,
      "Med": 3501,
      "group": 3502,
      "control": 3503,
      "mit": 3504,
      "occur": 3505,
      "material": 3506,
      "ests": 3507,
      "individual": 3508,
      "thod": 3509,
      "ken": 3510,
      ",”": 3511,
      "project": 3512,
      "bas": 3513,
      "suc": 3514,
      "jo": 3515,
      "che": 3516,
      "NA": 3517,
      "want": 3518,
      "here": 3519,
      "ina": 3520,
      "real": 3521,
      "Ro": 3522,
      "ential": 3523,
      "history": 3524,
      "top": 3525,
      "ource": 3526,
      "ned": 3527,
      "ref": 3528,
      "understand": 3529,
      "family": 3530,
      "iqu": 3531,
      "mic": 3532,
      "angu": 3533,
      "ified": 3534,
      "fac": 3535,
      "rest": 3536,
      "home": 3537,
      "against": 3538,
      "However": 3539,
      "major": 3540,
      "itive": 3541,
      "ben": 3542,
      "ban": 3543,
      "indu": 3544,
      "mus": 3545,
      "tion": 3546,
      "rist": 3547,
      "ground": 3548,
      "ended": 3549,
      "paren": 3550,
      "ians": 3551,
      "cu": 3552,
      "emp": 3553,
      "four": 3554,
      "bro": 3555,
      "several": 3556,
      "orig": 3557,
      "treatment": 3558,
      "US": 3559,
      "available": 3560,
      "cancer": 3561,
      "ination": 3562,
      "Pl": 3563,
      "look": 3564,
      "enc": 3565,
      "cult": 3566,
      "plant": 3567,
      "imp": 3568,
      "experi": 3569,
      "descr": 3570,
      "ake": 3571,
      "idence": 3572,
      "current": 3573,
      "whe": 3574,
      "open": 3575,
      "far": 3576,
      "particular": 3577,
      "lab": 3578,
      "ency": 3579,
      "All": 3580,
      "Sci": 3581,
      "period": 3582,
      "ided": 3583,
      "artic": 3584,
      "second": 3585,
      "ctive": 3586,
      "itical": 3587,
      "certain": 3588,
      "God": 3589,
      "itional": 3590,
      "cut": 3591,
      "post": 3592,
      "plac": 3593,
      "wee": 3594,
      "run": 3595,
      "aim": 3596,
      "among": 3597,
      "free": 3598,
      "areas": 3599,
      "ior": 3600,
      "proper": 3601,
      "become": 3602,
      "ey": 3603,
      "since": 3604,
      "natural": 3605,
      "dam": 3606,
      "anal": 3607,
      "Some": 3608,
      "hn": 3609,
      "Ind": 3610,
      "ological": 3611,
      "ann": 3612,
      "type": 3613,
      "sis": 3614,
      "ones": 3615,
      "list": 3616,
      "month": 3617,
      "side": 3618,
      "25": 3619,
      "social": 3620,
      "ably": 3621,
      "ats": 3622,
      "chem": 3623,
      "posed": 3624,
      "provide": 3625,
      "cells": 3626,
      "ustr": 3627,
      "abl": 3628,
      "plain": 3629,
      "imes": 3630,
      "ket": 3631,
      "mun": 3632,
      "ale": 3633,
      "II": 3634,
      "invol": 3635,
      "raw": 3636,
      "local": 3637,
      "sc": 3638,
      "Euro": 3639,
      "One": 3640,
      "heart": 3641,
      "lands": 3642,
      "house": 3643,
      "...": 3644,
      "Af": 3645,
      "Christ": 3646,
      "ards": 3647,
      "later": 3648,
      "lower": 3649,
      "better": 3650,
      "rece": 3651,
      "prevent": 3652,
      "following": 3653,
      "ches": 3654,
      "ories": 3655,
      "tre": 3656,
      "eral": 3657,
      "given": 3658,
      "Dr": 3659,
      "Mar": 3660,
      "times": 3661,
      "best": 3662,
      "object": 3663,
      "atic": 3664,
      "country": 3665,
      "Ac": 3666,
      "By": 3667,
      "Sp": 3668,
      "ify": 3669,
      "cost": 3670,
      "nal": 3671,
      "century": 3672,
      "bus": 3673,
      "hol": 3674,
      "usually": 3675,
      "Ear": 3676,
      "author": 3677,
      "loy": 3678,
      "interest": 3679,
      "ither": 3680,
      "Health": 3681,
      "ilar": 3682,
      "direct": 3683,
      "fort": 3684,
      "Europe": 3685,
      "case": 3686,
      "million": 3687,
      "problems": 3688,
      "langu": 3689,
      "method": 3690,
      "trad": 3691,
      "think": 3692,
      "az": 3693,
      "means": 3694,
      "others": 3695,
      "exist": 3696,
      "fish": 3697,
      "iness": 3698,
      "keep": 3699,
      "Sh": 3700,
      "Pe": 3701,
      "systems": 3702,
      "John": 3703,
      "sugg": 3704,
      "success": 3705,
      "things": 3706,
      "comes": 3707,
      "acc": 3708,
      "little": 3709,
      "aster": 3710,
      "youn": 3711,
      "cam": 3712,
      "hal": 3713,
      "until": 3714,
      "mean": 3715,
      "197": 3716,
      "associ": 3717,
      "tail": 3718,
      "ax": 3719,
      "ox": 3720,
      "Tr": 3721,
      "signific": 3722,
      "abo": 3723,
      "fil": 3724,
      "likely": 3725,
      "urther": 3726,
      "ime": 3727,
      "tries": 3728,
      "dev": 3729,
      "ht": 3730,
      "40": 3731,
      "cially": 3732,
      "exper": 3733,
      "recent": 3734,
      "rop": 3735,
      "position": 3736,
      "earch": 3737,
      "mission": 3738,
      "glo": 3739,
      "Po": 3740,
      "affect": 3741,
      "wide": 3742,
      "ges": 3743,
      "ision": 3744,
      "levels": 3745,
      "oks": 3746,
      "den": 3747,
      "days": 3748,
      "key": 3749,
      "cing": 3750,
      "action": 3751,
      "May": 3752,
      "seem": 3753,
      "Coun": 3754,
      "ff": 3755,
      "access": 3756,
      "tru": 3757,
      "mpto": 3758,
      "Sy": 3759,
      "War": 3760,
      "ined": 3761,
      "imate": 3762,
      "clear": 3763,
      "ances": 3764,
      "happ": 3765,
      "cogn": 3766,
      "space": 3767,
      "ready": 3768,
      "comb": 3769,
      "thern": 3770,
      "tic": 3771,
      "Ger": 3772,
      "inst": 3773,
      "ibr": 3774,
      "Afr": 3775,
      "amoun": 3776,
      "result": 3777,
      "defin": 3778,
      "ged": 3779,
      "population": 3780,
      "course": 3781,
      "bur": 3782,
      "sequ": 3783,
      "With": 3784,
      "field": 3785,
      "centr": 3786,
      "medic": 3787,
      "ped": 3788,
      "phy": 3789,
      "pet": 3790,
      "room": 3791,
      "That": 3792,
      "Afric": 3793,
      "turn": 3794,
      "ont": 3795,
      "function": 3796,
      "making": 3797,
      "problem": 3798,
      "ls": 3799,
      "model": 3800,
      "offic": 3801,
      "cir": 3802,
      "special": 3803,
      "establ": 3804,
      "ills": 3805,
      "refer": 3806,
      "gether": 3807,
      "World": 3808,
      "60": 3809,
      "oid": 3810,
      "ctions": 3811,
      "Ne": 3812,
      "hard": 3813,
      "however": 3814,
      "benef": 3815,
      "cul": 3816,
      "death": 3817,
      "uel": 3818,
      "related": 3819,
      "ots": 3820,
      "ched": 3821,
      "ends": 3822,
      "havi": 3823,
      "bit": 3824,
      "Car": 3825,
      "industr": 3826,
      "results": 3827,
      "Ge": 3828,
      "atory": 3829,
      "above": 3830,
      "along": 3831,
      "vious": 3832,
      "feel": 3833,
      "necess": 3834,
      "carr": 3835,
      "fall": 3836,
      "IS": 3837,
      "ley": 3838,
      "conne": 3839,
      "prove": 3840,
      "education": 3841,
      "24": 3842,
      "Gr": 3843,
      "hab": 3844,
      "ore": 3845,
      "rele": 3846,
      "least": 3847,
      "ler": 3848,
      "pect": 3849,
      "similar": 3850,
      "significant": 3851,
      "uary": 3852,
      "specific": 3853,
      "2012": 3854,
      "conditions": 3855,
      "Jew": 3856,
      "community": 3857,
      "hour": 3858,
      "sw": 3859,
      "ane": 3860,
      "ators": 3861,
      "Cal": 3862,
      "never": 3863,
      "uter": 3864,
      "ining": 3865,
      "left": 3866,
      "ago": 3867,
      "eved": 3868,
      "hold": 3869,
      "minis": 3870,
      "together": 3871,
      "org": 3872,
      "kind": 3873,
      "character": 3874,
      "Ser": 3875,
      "hor": 3876,
      "formed": 3877,
      "mptoms": 3878,
      "sions": 3879,
      "changes": 3880,
      "countries": 3881,
      "short": 3882,
      "ently": 3883,
      "mber": 3884,
      "ensive": 3885,
      "colle": 3886,
      "increase": 3887,
      "tribut": 3888,
      "words": 3889,
      "profess": 3890,
      "SA": 3891,
      "wind": 3892,
      "next": 3893,
      "away": 3894,
      "ork": 3895,
      "works": 3896,
      "mult": 3897,
      "invest": 3898,
      "higher": 3899,
      "learn": 3900,
      "general": 3901,
      "discus": 3902,
      "brain": 3903,
      "web": 3904,
      "science": 3905,
      "due": 3906,
      "young": 3907,
      "temper": 3908,
      "prim": 3909,
      "represent": 3910,
      "sal": 3911,
      "moder": 3912,
      "urch": 3913,
      "iate": 3914,
      "studies": 3915,
      "espe": 3916,
      "ster": 3917,
      "Research": 3918,
      "concer": 3919,
      "cra": 3920,
      "ade": 3921,
      "word": 3922,
      "olution": 3923,
      "uture": 3924,
      "effects": 3925,
      "ured": 3926,
      "active": 3927,
      "especially": 3928,
      "atch": 3929,
      "\".": 3930,
      "past": 3931,
      "ling": 3932,
      "diffic": 3933,
      "Brit": 3934,
      "strong": 3935,
      "ledge": 3936,
      "tom": 3937,
      "flow": 3938,
      "ses": 3939,
      "mid": 3940,
      "ands": 3941,
      "begin": 3942,
      "ised": 3943,
      "complete": 3944,
      "Ab": 3945,
      "100": 3946,
      "whether": 3947,
      "became": 3948,
      "today": 3949,
      "text": 3950,
      "ought": 3951,
      "omet": 3952,
      "Fr": 3953,
      "sha": 3954,
      "applic": 3955,
      "bon": 3956,
      "State": 3957,
      "reach": 3958,
      "ison": 3959,
      "ush": 3960,
      "Dis": 3961,
      "behavi": 3962,
      "patients": 3963,
      "America": 3964,
      "ik": 3965,
      "ivil": 3966,
      "labor": 3967,
      "indic": 3968,
      "grad": 3969,
      "always": 3970,
      "cop": 3971,
      "har": 3972,
      "something": 3973,
      "York": 3974,
      "termin": 3975,
      "working": 3976,
      "oto": 3977,
      "Stud": 3978,
      "going": 3979,
      "give": 3980,
      "issue": 3981,
      "North": 3982,
      "aring": 3983,
      "gress": 3984,
      "tow": 3985,
      "full": 3986,
      "itor": 3987,
      "language": 3988,
      "cases": 3989,
      "city": 3990,
      "Do": 3991,
      "ene": 3992,
      "acy": 3993,
      "Man": 3994,
      "remain": 3995,
      "taken": 3996,
      "atures": 3997,
      "ae": 3998,
      "respons": 3999,
      "groups": 4000,
      "rate": 4001,
      "chan": 4002,
      "agement": 4003,
      "paper": 4004,
      "ilities": 4005,
      "Not": 4006,
      "polic": 4007,
      "plants": 4008,
      "After": 4009,
      "utr": 4010,
      "ially": 4011,
      "eds": 4012,
      "South": 4013,
      "having": 4014,
      "relig": 4015,
      "effective": 4016,
      "enough": 4017,
      "learning": 4018,
      "partment": 4019,
      "Cl": 4020,
      "selves": 4021,
      "asing": 4022,
      "count": 4023,
      "medical": 4024,
      "researchers": 4025,
      "stead": 4026,
      "drug": 4027,
      "23": 4028,
      "sun": 4029,
      "production": 4030,
      "symptoms": 4031,
      "sens": 4032,
      "developed": 4033,
      "normal": 4034,
      "oman": 4035,
      "fully": 4036,
      "gas": 4037,
      "approach": 4038,
      "aver": 4039,
      "def": 4040,
      "surface": 4041,
      "either": 4042,
      "mark": 4043,
      "five": 4044,
      ".)": 4045,
      "subject": 4046,
      "ames": 4047,
      "crip": 4048,
      "future": 4049,
      "range": 4050,
      "impact": 4051,
      "half": 4052,
      "Hist": 4053,
      "fig": 4054,
      "aut": 4055,
      "Earth": 4056,
      "lack": 4057,
      "upon": 4058,
      "force": 4059,
      "step": 4060,
      "ER": 4061,
      "seen": 4062,
      "2011": 4063,
      "www": 4064,
      "Pres": 4065,
      "influ": 4066,
      "team": 4067,
      "Inter": 4068,
      "graph": 4069,
      "claim": 4070,
      "Me": 4071,
      "suf": 4072,
      "rodu": 4073,
      "22": 4074,
      "require": 4075,
      "close": 4076,
      "oil": 4077,
      "economic": 4078,
      "enn": 4079,
      "evidence": 4080,
      "amin": 4081,
      "inci": 4082,
      "tell": 4083,
      "pressure": 4084,
      "further": 4085,
      "diag": 4086,
      "//": 4087,
      "activity": 4088,
      "big": 4089,
      "reason": 4090,
      "return": 4091,
      "thir": 4092,
      "published": 4093,
      "according": 4094,
      "continu": 4095,
      "ened": 4096,
      "tact": 4097,
      "across": 4098,
      "ogra": 4099,
      "lines": 4100,
      "role": 4101,
      "ometimes": 4102,
      "quality": 4103,
      "ief": 4104,
      "live": 4105,
      "weight": 4106,
      "covered": 4107,
      "Engl": 4108,
      "members": 4109,
      "sent": 4110,
      "His": 4111,
      "pression": 4112,
      "technology": 4113,
      "une": 4114,
      "employ": 4115,
      "why": 4116,
      "stat": 4117,
      "observ": 4118,
      "While": 4119,
      "fail": 4120,
      "various": 4121,
      "ilt": 4122,
      "mor": 4123,
      "white": 4124,
      "mass": 4125,
      "question": 4126,
      "init": 4127,
      "mind": 4128,
      "types": 4129,
      "collect": 4130,
      "plement": 4131,
      "oney": 4132,
      "physical": 4133,
      "rather": 4134,
      "needs": 4135,
      "English": 4136,
      "histor": 4137,
      "pose": 4138,
      "hip": 4139,
      "address": 4140,
      "growth": 4141,
      "ening": 4142,
      "dict": 4143,
      "prob": 4144,
      "She": 4145,
      "done": 4146,
      "tp": 4147,
      "particip": 4148,
      "gest": 4149,
      "loss": 4150,
      "road": 4151,
      "istic": 4152,
      "ateg": 4153,
      "building": 4154,
      "size": 4155,
      "create": 4156,
      "suggest": 4157,
      "2010": 4158,
      "explain": 4159,
      "resources": 4160,
      "21": 4161,
      "single": 4162,
      "tar": 4163,
      "aves": 4164,
      "://": 4165,
      "forms": 4166,
      "ns": 4167,
      "ays": 4168,
      "ending": 4169,
      "relation": 4170,
      "stitute": 4171,
      "draw": 4172,
      "Per": 4173,
      "http": 4174,
      "article": 4175,
      "famil": 4176,
      "issues": 4177,
      "fed": 4178,
      "Fe": 4179,
      "pread": 4180,
      "Many": 4181,
      "source": 4182,
      "ique": 4183,
      "already": 4184,
      "Pol": 4185,
      "iting": 4186,
      "iment": 4187,
      "ires": 4188,
      "gar": 4189,
      "black": 4190,
      "whole": 4191,
      "ports": 4192,
      "event": 4193,
      "ream": 4194,
      "ints": 4195,
      "ification": 4196,
      "offer": 4197,
      "amount": 4198,
      "syn": 4199,
      "itary": 4200,
      "dem": 4201,
      "doctor": 4202,
      "improve": 4203,
      "political": 4204,
      "dro": 4205,
      "coming": 4206,
      "tool": 4207,
      "docu": 4208,
      "fri": 4209,
      "CO": 4210,
      "states": 4211,
      "value": 4212,
      "Gu": 4213,
      "story": 4214,
      "photo": 4215,
      "recogn": 4216,
      "meet": 4217,
      "experience": 4218,
      "priv": 4219,
      "once": 4220,
      "skin": 4221,
      "frequ": 4222,
      "cannot": 4223,
      "iation": 4224,
      "Most": 4225,
      "rights": 4226,
      "member": 4227,
      "Te": 4228,
      "outs": 4229,
      "describ": 4230,
      "press": 4231,
      "living": 4232,
      "ank": 4233,
      "parts": 4234,
      "animals": 4235,
      "eth": 4236,
      "week": 4237,
      "six": 4238,
      "Other": 4239,
      "flo": 4240,
      "thought": 4241,
      "ibility": 4242,
      "xim": 4243,
      "ysis": 4244,
      "appear": 4245,
      "knowledge": 4246,
      "vo": 4247,
      "__": 4248,
      "bot": 4249,
      "struction": 4250,
      "recomm": 4251,
      "business": 4252,
      "ournal": 4253,
      "squ": 4254,
      "page": 4255,
      "toward": 4256,
      "ying": 4257,
      "ival": 4258,
      "28": 4259,
      "igr": 4260,
      "ublic": 4261,
      "estern": 4262,
      "):": 4263,
      "acks": 4264,
      "difficult": 4265,
      "wr": 4266,
      "climate": 4267,
      "chemical": 4268,
      "sam": 4269,
      "engine": 4270,
      "196": 4271,
      "increased": 4272,
      "created": 4273,
      "occ": 4274,
      "began": 4275,
      "took": 4276,
      "really": 4277,
      "products": 4278,
      "illed": 4279,
      "itself": 4280,
      "gs": 4281,
      "makes": 4282,
      "aries": 4283,
      "ention": 4284,
      "aged": 4285,
      "bar": 4286,
      "below": 4287,
      "modern": 4288,
      "sof": 4289,
      "mach": 4290,
      "condu": 4291,
      "eding": 4292,
      "region": 4293,
      "wood": 4294,
      "spr": 4295,
      "apan": 4296,
      "ES": 4297,
      "record": 4298,
      "addition": 4299,
      "themselves": 4300,
      "Will": 4301,
      "lay": 4302,
      "AR": 4303,
      "almost": 4304,
      "pan": 4305,
      "sex": 4306,
      "26": 4307,
      "green": 4308,
      "27": 4309,
      "Lo": 4310,
      "erc": 4311,
      "services": 4312,
      "Center": 4313,
      "associated": 4314,
      "yet": 4315,
      "ru": 4316,
      "anger": 4317,
      "nature": 4318,
      "thin": 4319,
      "computer": 4320,
      "IN": 4321,
      "forest": 4322,
      "advan": 4323,
      "2008": 4324,
      "got": 4325,
      "ficient": 4326,
      "Science": 4327,
      "dig": 4328,
      "AN": 4329,
      "atter": 4330,
      "needed": 4331,
      "hib": 4332,
      "detail": 4333,
      "activities": 4334,
      "considered": 4335,
      "lot": 4336,
      "potential": 4337,
      "uation": 4338,
      "scientists": 4339,
      "ney": 4340,
      "pay": 4341,
      "months": 4342,
      "global": 4343,
      "Japan": 4344,
      "dle": 4345,
      "mag": 4346,
      "Ed": 4347,
      "round": 4348,
      "stitution": 4349,
      "produce": 4350,
      "mb": 4351,
      "2009": 4352,
      "mother": 4353,
      "scal": 4354,
      "reduce": 4355,
      "answ": 4356,
      "introdu": 4357,
      "Austr": 4358,
      "Although": 4359,
      "More": 4360,
      "Cent": 4361,
      "iam": 4362,
      "Par": 4363,
      "load": 4364,
      "cks": 4365,
      "ington": 4366,
      "Canad": 4367,
      "Of": 4368,
      "fire": 4369,
      "gain": 4370,
      "necessary": 4371,
      "decl": 4372,
      "oura": 4373,
      "diagno": 4374,
      "sea": 4375,
      "bill": 4376,
      "Jan": 4377,
      "entire": 4378,
      "80": 4379,
      "Des": 4380,
      "communic": 4381,
      "ery": 4382,
      "inc": 4383,
      "hom": 4384,
      "Eng": 4385,
      "oking": 4386,
      "Cor": 4387,
      "taking": 4388,
      "fat": 4389,
      "IV": 4390,
      "provides": 4391,
      "29": 4392,
      "provided": 4393,
      "ping": 4394,
      "infect": 4395,
      "stor": 4396,
      "separ": 4397,
      "iber": 4398,
      "sych": 4399,
      "bed": 4400,
      "parents": 4401,
      "tri": 4402,
      "ables": 4403,
      "emer": 4404,
      "Department": 4405,
      "Ma": 4406,
      "path": 4407,
      "late": 4408,
      "log": 4409,
      "princi": 4410,
      "service": 4411,
      "nation": 4412,
      "soil": 4413,
      "sou": 4414,
      "School": 4415,
      "questions": 4416,
      "stant": 4417,
      "Mon": 4418,
      "ID": 4419,
      "ugh": 4420,
      "2007": 4421,
      "reed": 4422,
      "ded": 4423,
      "Qu": 4424,
      "dest": 4425,
      "Act": 4426,
      "night": 4427,
      "spir": 4428,
      "pers": 4429,
      "Ju": 4430,
      "condition": 4431,
      "Rev": 4432,
      "Aug": 4433,
      "iding": 4434,
      "AT": 4435,
      "vention": 4436,
      "Ho": 4437,
      "tax": 4438,
      "actually": 4439,
      "measure": 4440,
      "194": 4441,
      "ising": 4442,
      "nia": 4443,
      "vit": 4444,
      "required": 4445,
      "link": 4446,
      "eve": 4447,
      "programs": 4448,
      "hood": 4449,
      "bul": 4450,
      "sound": 4451,
      "focus": 4452,
      "From": 4453,
      "earth": 4454,
      "attle": 4455,
      "liter": 4456,
      "total": 4457,
      "utions": 4458,
      "explo": 4459,
      "environmental": 4460,
      "average": 4461,
      "built": 4462,
      "chall": 4463,
      "farm": 4464,
      "moved": 4465,
      "Her": 4466,
      "cil": 4467,
      "caused": 4468,
      "ering": 4469,
      "born": 4470,
      "Pa": 4471,
      "Sep": 4472,
      "lor": 4473,
      "regard": 4474,
      "tro": 4475,
      "ino": 4476,
      "ference": 4477,
      "quick": 4478,
      "simple": 4479,
      "won": 4480,
      "idea": 4481,
      "Pre": 4482,
      "sometimes": 4483,
      "wise": 4484,
      "utes": 4485,
      "uss": 4486,
      "lives": 4487,
      "liver": 4488,
      "cit": 4489,
      "apy": 4490,
      "stain": 4491,
      "relative": 4492,
      "hours": 4493,
      "reported": 4494,
      "Wash": 4495,
      "Spe": 4496,
      "portun": 4497,
      "pie": 4498,
      "actions": 4499,
      "heav": 4500,
      "Intern": 4501,
      "eval": 4502,
      "Gener": 4503,
      "thus": 4504,
      "true": 4505,
      "date": 4506,
      "British": 4507,
      "ze": 4508,
      "materials": 4509,
      "previous": 4510,
      "behavior": 4511,
      "rap": 4512,
      "maintain": 4513,
      "Am": 4514,
      "inary": 4515,
      "rench": 4516,
      "conver": 4517,
      "argu": 4518,
      "vey": 4519,
      "shows": 4520,
      "complex": 4521,
      "iet": 4522,
      "exerc": 4523,
      "schools": 4524,
      "iers": 4525,
      "surv": 4526,
      "standard": 4527,
      "Apr": 4528,
      "Go": 4529,
      "habit": 4530,
      "regular": 4531,
      "factors": 4532,
      "sense": 4533,
      "aging": 4534,
      "ging": 4535,
      "greater": 4536,
      "poor": 4537,
      "origin": 4538,
      "rul": 4539,
      "ham": 4540,
      "rect": 4541,
      "alk": 4542,
      "books": 4543,
      "money": 4544,
      "ulations": 4545,
      "review": 4546,
      "fection": 4547,
      "Ste": 4548,
      "determin": 4549,
      "accept": 4550,
      "extra": 4551,
      "etic": 4552,
      "compan": 4553,
      "afety": 4554,
      "respon": 4555,
      "wa": 4556,
      "Min": 4557,
      "dete": 4558,
      "threat": 4559,
      "healthy": 4560,
      "dy": 4561,
      "div": 4562,
      "color": 4563,
      "rich": 4564,
      "itch": 4565,
      "inte": 4566,
      "vision": 4567,
      "heat": 4568,
      "ife": 4569,
      "designed": 4570,
      "produced": 4571,
      "migr": 4572,
      "student": 4573,
      "placed": 4574,
      "ert": 4575,
      "June": 4576,
      "King": 4577,
      "Oc": 4578,
      "tage": 4579,
      "leep": 4580,
      "terms": 4581,
      "matter": 4582,
      "AC": 4583,
      "arily": 4584,
      "See": 4585,
      "ials": 4586,
      "management": 4587,
      "Institute": 4588,
      "print": 4589,
      "content": 4590,
      "viol": 4591,
      "ministr": 4592,
      "throughout": 4593,
      "micro": 4594,
      "iabet": 4595,
      "Austral": 4596,
      "extre": 4597,
      "longer": 4598,
      "Cali": 4599,
      "online": 4600,
      "abs": 4601,
      "ford": 4602,
      "chol": 4603,
      "ronic": 4604,
      "spread": 4605,
      "March": 4606,
      "ners": 4607,
      "fair": 4608,
      "Dav": 4609,
      "usion": 4610,
      "Fran": 4611,
      "sl": 4612,
      "pattern": 4613,
      "German": 4614,
      "generally": 4615,
      "ike": 4616,
      "birth": 4617,
      "personal": 4618,
      "image": 4619,
      "written": 4620,
      "includes": 4621,
      "increasing": 4622,
      "super": 4623,
      "ults": 4624,
      "cular": 4625,
      "sph": 4626,
      "held": 4627,
      "yle": 4628,
      "smo": 4629,
      "understanding": 4630,
      "feet": 4631,
      "estim": 4632,
      "lex": 4633,
      "IC": 4634,
      "opportun": 4635,
      "civil": 4636,
      "Cam": 4637,
      "Washington": 4638,
      "safe": 4639,
      "izing": 4640,
      "international": 4641,
      "35": 4642,
      "bab": 4643,
      "popular": 4644,
      "west": 4645,
      "Califor": 4646,
      "reading": 4647,
      "analysis": 4648,
      "ountain": 4649,
      "carbon": 4650,
      "fem": 4651,
      "lam": 4652,
      "West": 4653,
      "plied": 4654,
      "protect": 4655,
      "curity": 4656,
      "ites": 4657,
      "developing": 4658,
      "70": 4659,
      "90": 4660,
      "ung": 4661,
      "ental": 4662,
      "respond": 4663,
      "According": 4664,
      "break": 4665,
      "Serv": 4666,
      "job": 4667,
      "causes": 4668,
      "ength": 4669,
      "ilo": 4670,
      "sus": 4671,
      "dou": 4672,
      "ption": 4673,
      "rown": 4674,
      "visit": 4675,
      "original": 4676,
      "ony": 4677,
      "Br": 4678,
      "fa": 4679,
      "assess": 4680,
      "proved": 4681,
      "conf": 4682,
      "apt": 4683,
      "vacc": 4684,
      "scientific": 4685,
      "sil": 4686,
      "win": 4687,
      "Your": 4688,
      "ST": 4689,
      "err": 4690,
      "California": 4691,
      "practice": 4692,
      "policy": 4693,
      "probably": 4694,
      "structure": 4695,
      "iter": 4696,
      "spect": 4697,
      "ades": 4698,
      "UN": 4699,
      "went": 4700,
      "shown": 4701,
      "French": 4702,
      "commit": 4703,
      "bra": 4704,
      "ension": 4705,
      "ivity": 4706,
      "aking": 4707,
      "reli": 4708,
      "theory": 4709,
      "military": 4710,
      "scre": 4711,
      "company": 4712,
      "Mic": 4713,
      "believe": 4714,
      "diet": 4715,
      "lying": 4716,
      "mechan": 4717,
      "pul": 4718,
      "Fir": 4719,
      "idge": 4720,
      "temperature": 4721,
      "Child": 4722,
      "July": 4723,
      "card": 4724,
      "training": 4725,
      "series": 4726,
      "individuals": 4727,
      "Edu": 4728,
      "front": 4729,
      "nutr": 4730,
      "China": 4731,
      "August": 4732,
      "Im": 4733,
      "cot": 4734,
      "particularly": 4735,
      "ball": 4736,
      "fuel": 4737,
      "ming": 4738,
      "useum": 4739,
      "electric": 4740,
      "third": 4741,
      "My": 4742,
      "sen": 4743,
      "contact": 4744,
      "relationship": 4745,
      "lled": 4746,
      "International": 4747,
      "town": 4748,
      "istics": 4749,
      "although": 4750,
      "industry": 4751,
      "thous": 4752,
      "sites": 4753,
      "pict": 4754,
      "wall": 4755,
      "orders": 4756,
      "appropr": 4757,
      "established": 4758,
      "RE": 4759,
      "na": 4760,
      "consum": 4761,
      "market": 4762,
      "April": 4763,
      "animal": 4764,
      "demon": 4765,
      "sources": 4766,
      "society": 4767,
      "movement": 4768,
      "History": 4769,
      "PA": 4770,
      "wild": 4771,
      "Gre": 4772,
      "clean": 4773,
      "ibrary": 4774,
      "2005": 4775,
      "serious": 4776,
      "San": 4777,
      "assist": 4778,
      "William": 4779,
      "deep": 4780,
      "growing": 4781,
      "bert": 4782,
      "involved": 4783,
      "sustain": 4784,
      "promot": 4785,
      "outside": 4786,
      "cat": 4787,
      "section": 4788,
      "ON": 4789,
      "marr": 4790,
      "included": 4791,
      "eat": 4792,
      "2006": 4793,
      "events": 4794,
      "numbers": 4795,
      "olic": 4796,
      "forman": 4797,
      "Now": 4798,
      "opt": 4799,
      "product": 4800,
      "Educ": 4801,
      "bacter": 4802,
      "except": 4803,
      "atives": 4804,
      "bring": 4805,
      "share": 4806,
      "Associ": 4807,
      "expe": 4808,
      "During": 4809,
      "tests": 4810,
      "music": 4811,
      "iabetes": 4812,
      "whose": 4813,
      "document": 4814,
      "neg": 4815,
      "fru": 4816,
      "ips": 4817,
      "mental": 4818,
      "foot": 4819,
      "consist": 4820,
      "First": 4821,
      "kids": 4822,
      "bs": 4823,
      "President": 4824,
      "Press": 4825,
      "European": 4826,
      "ai": 4827,
      "ties": 4828,
      "avoid": 4829,
      "concl": 4830,
      "integr": 4831,
      "simply": 4832,
      "response": 4833,
      "immun": 4834,
      "aware": 4835,
      "progress": 4836,
      "resist": 4837,
      "2013": 4838,
      "Americans": 4839,
      "cean": 4840,
      "bel": 4841,
      "warm": 4842,
      "ellow": 4843,
      "travel": 4844,
      "haps": 4845,
      "variety": 4846,
      "aud": 4847,
      "implement": 4848,
      "mix": 4849,
      "vide": 4850,
      "aily": 4851,
      "gency": 4852,
      "slow": 4853,
      "select": 4854,
      "skills": 4855,
      "Web": 4856,
      "deb": 4857,
      "account": 4858,
      "empt": 4859,
      "Char": 4860,
      "deal": 4861,
      "star": 4862,
      "extreme": 4863,
      "era": 4864,
      "inj": 4865,
      "Ap": 4866,
      "central": 4867,
      "independ": 4868,
      "basic": 4869,
      "ote": 4870,
      "ume": 4871,
      "aving": 4872,
      "tit": 4873,
      "thy": 4874,
      "north": 4875,
      "Cong": 4876,
      "points": 4877,
      "Indian": 4878,
      "ana": 4879,
      "ancy": 4880,
      "damage": 4881,
      "cient": 4882,
      "Har": 4883,
      "sho": 4884,
      "parent": 4885,
      "father": 4886,
      "center": 4887,
      "rup": 4888,
      "hot": 4889,
      "36": 4890,
      "news": 4891,
      "Bar": 4892,
      "instru": 4893,
      "fav": 4894,
      "ico": 4895,
      "meaning": 4896,
      "answer": 4897,
      "immed": 4898,
      "encoura": 4899,
      "demonstr": 4900,
      "check": 4901,
      "families": 4902,
      "added": 4903,
      "ama": 4904,
      "2000": 4905,
      "tur": 4906,
      "inde": 4907,
      "foods": 4908,
      "African": 4909,
      "mess": 4910,
      "board": 4911,
      "Since": 4912,
      "Mus": 4913,
      "tribution": 4914,
      "van": 4915,
      "termine": 4916,
      "195": 4917,
      "investig": 4918,
      "ows": 4919,
      "isions": 4920,
      "corpor": 4921,
      "stream": 4922,
      "etc": 4923,
      "Ob": 4924,
      "Gen": 4925,
      "reng": 4926,
      "River": 4927,
      "Su": 4928,
      "sleep": 4929,
      "patient": 4930,
      "ctors": 4931,
      "pret": 4932,
      "severe": 4933,
      "Christian": 4934,
      "formance": 4935,
      "ring": 4936,
      "Mc": 4937,
      "infection": 4938,
      "host": 4939,
      "ister": 4940,
      "doing": 4941,
      "stress": 4942,
      "attention": 4943,
      "Gover": 4944,
      "cade": 4945,
      "attack": 4946,
      "ises": 4947,
      "Rep": 4948,
      "ulture": 4949,
      "pal": 4950,
      "culture": 4951,
      "ufact": 4952,
      "concept": 4953,
      "south": 4954,
      "soon": 4955,
      "hind": 4956,
      "Reg": 4957,
      "High": 4958,
      "Church": 4959,
      "legal": 4960,
      "continue": 4961,
      "Here": 4962,
      "January": 4963,
      "fast": 4964,
      "broad": 4965,
      "scale": 4966,
      "Sur": 4967,
      "miles": 4968,
      "lling": 4969,
      "private": 4970,
      "vation": 4971,
      "therefore": 4972,
      "instead": 4973,
      "45": 4974,
      "takes": 4975,
      "rag": 4976,
      "AS": 4977,
      "proced": 4978,
      "code": 4979,
      "religious": 4980,
      "Our": 4981,
      "nearly": 4982,
      "OR": 4983,
      "strict": 4984,
      "iple": 4985,
      "tember": 4986,
      "gree": 4987,
      "limited": 4988,
      "Part": 4989,
      "tee": 4990,
      "sem": 4991,
      "AD": 4992,
      "Sm": 4993,
      "determine": 4994,
      "larger": 4995,
      "ieve": 4996,
      "September": 4997,
      "Because": 4998,
      "located": 4999,
      "nel": 5000,
      "Russ": 5001,
      "shall": 5002,
      "Mis": 5003,
      "India": 5004,
      "roy": 5005,
      "covery": 5006,
      "writing": 5007,
      "Ber": 5008,
      "uge": 5009,
      "cross": 5010,
      "ding": 5011,
      "easy": 5012,
      "agree": 5013,
      "ri": 5014,
      "reas": 5015,
      "\",": 5016,
      "leaders": 5017,
      "methods": 5018,
      "Lin": 5019,
      "rates": 5020,
      "decre": 5021,
      "teen": 5022,
      "iew": 5023,
      "onom": 5024,
      "guide": 5025,
      "Medic": 5026,
      "Africa": 5027,
      "veget": 5028,
      "Tw": 5029,
      "compon": 5030,
      "nuc": 5031,
      "enced": 5032,
      "birds": 5033,
      "bey": 5034,
      "pen": 5035,
      "tree": 5036,
      "hund": 5037,
      "forts": 5038,
      "former": 5039,
      "Hum": 5040,
      "positive": 5041,
      "33": 5042,
      "ito": 5043,
      "quite": 5044,
      "tober": 5045,
      "streng": 5046,
      "EN": 5047,
      "safety": 5048,
      "suffer": 5049,
      "cture": 5050,
      "Cur": 5051,
      "base": 5052,
      "cles": 5053,
      "poll": 5054,
      "General": 5055,
      "iloso": 5056,
      "servation": 5057,
      "benefits": 5058,
      "himself": 5059,
      "eye": 5060,
      "prior": 5061,
      "October": 5062,
      "Che": 5063,
      "Cha": 5064,
      "leading": 5065,
      "Soci": 5066,
      "inf": 5067,
      "establish": 5068,
      "TH": 5069,
      "band": 5070,
      "190": 5071,
      "itation": 5072,
      "additional": 5073,
      "primary": 5074,
      "lection": 5075,
      "Bi": 5076,
      "trees": 5077,
      "identify": 5078,
      "correct": 5079,
      "sco": 5080,
      "directly": 5081,
      "emis": 5082,
      "described": 5083,
      "sat": 5084,
      "psych": 5085,
      "ops": 5086,
      "sold": 5087,
      "getting": 5088,
      "Nove": 5089,
      "Even": 5090,
      "clin": 5091,
      "imin": 5092,
      "traditional": 5093,
      "received": 5094,
      "communities": 5095,
      "concentr": 5096,
      "doesn": 5097,
      "Sun": 5098,
      "uk": 5099,
      "command": 5100,
      "iverse": 5101,
      "rote": 5102,
      "expected": 5103,
      "jud": 5104,
      "anti": 5105,
      "expo": 5106,
      "pregn": 5107,
      "November": 5108,
      "ales": 5109,
      "humans": 5110,
      "ograph": 5111,
      "AL": 5112,
      "length": 5113,
      "ergy": 5114,
      "predict": 5115,
      "season": 5116,
      "Jewish": 5117,
      "largest": 5118,
      "31": 5119,
      "altern": 5120,
      "Read": 5121,
      "uck": 5122,
      "saw": 5123,
      "seems": 5124,
      "arian": 5125,
      "supply": 5126,
      "capt": 5127,
      "tric": 5128,
      "appropriate": 5129,
      "performance": 5130,
      "Dece": 5131,
      "places": 5132,
      "Canada": 5133,
      "beginning": 5134,
      "looking": 5135,
      "serve": 5136,
      "obtain": 5137,
      "counter": 5138,
      "rare": 5139,
      "estic": 5140,
      "ields": 5141,
      "died": 5142,
      "lier": 5143,
      "cret": 5144,
      "equip": 5145,
      "Gree": 5146,
      "evolution": 5147,
      "manufact": 5148,
      "cords": 5149,
      "display": 5150,
      "Arch": 5151,
      "December": 5152,
      "federal": 5153,
      "wrote": 5154,
      "teachers": 5155,
      "accur": 5156,
      "trade": 5157,
      "brought": 5158,
      "cast": 5159,
      "Jes": 5160,
      "memory": 5161,
      "isms": 5162,
      "trieved": 5163,
      "People": 5164,
      "La": 5165,
      "tend": 5166,
      "Great": 5167,
      "Vir": 5168,
      "inside": 5169,
      "agric": 5170,
      "tware": 5171,
      "else": 5172,
      "workers": 5173,
      "reflect": 5174,
      ");": 5175,
      "feed": 5176,
      "2003": 5177,
      "fici": 5178,
      "love": 5179,
      "tox": 5180,
      "lic": 5181,
      "Tra": 5182,
      "CD": 5183,
      "commer": 5184,
      "Mex": 5185,
      "ously": 5186,
      "ius": 5187,
      "zer": 5188,
      "bad": 5189,
      "Phil": 5190,
      "Why": 5191,
      "IT": 5192,
      "compared": 5193,
      "mosph": 5194,
      "told": 5195,
      "rout": 5196,
      "efforts": 5197,
      "lost": 5198,
      "2004": 5199,
      "David": 5200,
      "fight": 5201,
      "East": 5202,
      "hous": 5203,
      "ceed": 5204,
      "highly": 5205,
      "astic": 5206,
      "tes": 5207,
      "que": 5208,
      "genetic": 5209,
      "location": 5210,
      "els": 5211,
      "34": 5212,
      "file": 5213,
      "pi": 5214,
      "coast": 5215,
      "antic": 5216,
      "solar": 5217,
      "edia": 5218,
      "moving": 5219,
      "ideas": 5220,
      "diabetes": 5221,
      "Cath": 5222,
      "quickly": 5223,
      "older": 5224,
      "County": 5225,
      "collection": 5226,
      "finan": 5227,
      "diseases": 5228,
      "Mr": 5229,
      "tools": 5230,
      "occup": 5231,
      "difference": 5232,
      "friend": 5233,
      "Lab": 5234,
      "cred": 5235,
      "images": 5236,
      "dead": 5237,
      "economy": 5238,
      "37": 5239,
      "rapid": 5240,
      "pped": 5241,
      "mains": 5242,
      "Union": 5243,
      "contains": 5244,
      "cool": 5245,
      "Commun": 5246,
      "reve": 5247,
      "started": 5248,
      "exercise": 5249,
      "Journal": 5250,
      "rael": 5251,
      "phen": 5252,
      "Program": 5253,
      "ets": 5254,
      "spital": 5255,
      "acid": 5256,
      "ED": 5257,
      "ils": 5258,
      "England": 5259,
      "danger": 5260,
      "drugs": 5261,
      "Jews": 5262,
      "City": 5263,
      "iat": 5264,
      "Day": 5265,
      "itis": 5266,
      "Red": 5267,
      "weeks": 5268,
      "38": 5269,
      "nes": 5270,
      "craft": 5271,
      "mole": 5272,
      "values": 5273,
      "forces": 5274,
      "daily": 5275,
      "tin": 5276,
      "ift": 5277,
      "gery": 5278,
      "Also": 5279,
      "allows": 5280,
      "summer": 5281,
      "remains": 5282,
      "adults": 5283,
      "application": 5284,
      "za": 5285,
      "virus": 5286,
      "dry": 5287,
      "Education": 5288,
      "ounds": 5289,
      "Over": 5290,
      "Israel": 5291,
      "aren": 5292,
      "acqu": 5293,
      "network": 5294,
      "reser": 5295,
      "Chin": 5296,
      "contribut": 5297,
      "construction": 5298,
      "Lon": 5299,
      "asked": 5300,
      "minim": 5301,
      "itude": 5302,
      "speed": 5303,
      "objects": 5304,
      "Congress": 5305,
      "media": 5306,
      "quant": 5307,
      "Develop": 5308,
      "Sw": 5309,
      "easily": 5310,
      "someone": 5311,
      "security": 5312,
      "named": 5313,
      "2001": 5314,
      "capac": 5315,
      "note": 5316,
      "critical": 5317,
      "dark": 5318,
      "behind": 5319,
      "nothing": 5320,
      "Prof": 5321,
      "useful": 5322,
      "billion": 5323,
      "vest": 5324,
      "Society": 5325,
      "Don": 5326,
      "fit": 5327,
      "attempt": 5328,
      "recently": 5329,
      "gets": 5330,
      "Association": 5331,
      "Then": 5332,
      "Retrieved": 5333,
      "vers": 5334,
      "prepare": 5335,
      "2002": 5336,
      "pair": 5337,
      "32": 5338,
      "pressed": 5339,
      "website": 5340,
      "hic": 5341,
      "companies": 5342,
      "ultural": 5343,
      "HIV": 5344,
      "infl": 5345,
      "Cour": 5346,
      "39": 5347,
      "capital": 5348,
      "hon": 5349,
      "Park": 5350,
      "pite": 5351,
      "minutes": 5352,
      "demand": 5353,
      "operation": 5354,
      "elements": 5355,
      "install": 5356,
      "weather": 5357,
      "contr": 5358,
      "alone": 5359,
      "Comp": 5360,
      "cum": 5361,
      "cro": 5362,
      "lat": 5363,
      "transport": 5364,
      "income": 5365,
      "features": 5366,
      "kets": 5367,
      "izations": 5368,
      "box": 5369,
      "cou": 5370,
      "Febr": 5371,
      "mom": 5372,
      "stay": 5373,
      "portion": 5374,
      "preser": 5375,
      "sett": 5376,
      "oud": 5377,
      "idents": 5378,
      "weak": 5379,
      "Public": 5380,
      "75": 5381,
      "protection": 5382,
      "uries": 5383,
      "Environment": 5384,
      "kill": 5385,
      "exposure": 5386,
      "protein": 5387,
      "February": 5388,
      "burn": 5389,
      "ull": 5390,
      "London": 5391,
      "property": 5392,
      "ancient": 5393,
      "waste": 5394,
      "ral": 5395,
      "continued": 5396,
      "auto": 5397,
      "eating": 5398,
      "middle": 5399,
      "Trans": 5400,
      "names": 5401,
      "Roman": 5402,
      "decision": 5403,
      "joy": 5404,
      "compet": 5405,
      "electr": 5406,
      "Sim": 5407,
      "AM": 5408,
      "cape": 5409,
      "Just": 5410,
      "Up": 5411,
      "rome": 5412,
      "challeng": 5413,
      "therapy": 5414,
      "winter": 5415,
      "Govern": 5416,
      "receive": 5417,
      "egg": 5418,
      "AP": 5419,
      "basis": 5420,
      "Fin": 5421,
      "verse": 5422,
      "spring": 5423,
      "radiation": 5424,
      "followed": 5425,
      "purpose": 5426,
      "ille": 5427,
      "Use": 5428,
      "exact": 5429,
      "talk": 5430,
      "orge": 5431,
      "System": 5432,
      "ram": 5433,
      "NASA": 5434,
      "goal": 5435,
      "citiz": 5436,
      "polit": 5437,
      "software": 5438,
      "unique": 5439,
      "aff": 5440,
      "ibe": 5441,
      "projects": 5442,
      "Vol": 5443,
      "tum": 5444,
      "exe": 5445,
      "achieve": 5446,
      "allowed": 5447,
      "influence": 5448,
      "500": 5449,
      "entially": 5450,
      "ficiency": 5451,
      "Chinese": 5452,
      "Lat": 5453,
      "changed": 5454,
      "Ty": 5455,
      "gene": 5456,
      "Rel": 5457,
      "mitted": 5458,
      "ensure": 5459,
      "seven": 5460,
      "Lear": 5461,
      "Thom": 5462,
      "Jesus": 5463,
      "iques": 5464,
      "Mor": 5465,
      "colog": 5466,
      "arter": 5467,
      "65": 5468,
      "Medical": 5469,
      "colon": 5470,
      "item": 5471,
      "target": 5472,
      "wat": 5473,
      "degree": 5474,
      "game": 5475,
      "woman": 5476,
      "aly": 5477,
      "distin": 5478,
      "BC": 5479,
      "ulate": 5480,
      "experiment": 5481,
      "die": 5482,
      "earlier": 5483,
      "appears": 5484,
      "version": 5485,
      "bone": 5486,
      "hands": 5487,
      "Council": 5488,
      "izes": 5489,
      "cultural": 5490,
      "table": 5491,
      "user": 5492,
      "mut": 5493,
      "church": 5494,
      "James": 5495,
      "stage": 5496,
      "multiple": 5497,
      "sn": 5498,
      "hope": 5499,
      "Each": 5500,
      "encies": 5501,
      "Techn": 5502,
      "unch": 5503,
      "testing": 5504,
      "vic": 5505,
      "cript": 5506,
      "atmosph": 5507,
      "mention": 5508,
      "stop": 5509,
      "urban": 5510,
      "Black": 5511,
      "bound": 5512,
      "generation": 5513,
      "administr": 5514,
      "mes": 5515,
      "DNA": 5516,
      "Water": 5517,
      "repe": 5518,
      "Green": 5519,
      "rock": 5520,
      "ctic": 5521,
      "abilities": 5522,
      "beyond": 5523,
      "isl": 5524,
      "House": 5525,
      "currently": 5526,
      "essential": 5527,
      "perhaps": 5528,
      "affected": 5529,
      "spirit": 5530,
      "1999": 5531,
      "discovered": 5532,
      "analy": 5533,
      "ester": 5534,
      "requires": 5535,
      "occurs": 5536,
      "Mid": 5537,
      "measures": 5538,
      "atom": 5539,
      "video": 5540,
      "reedom": 5541,
      "monitor": 5542,
      "rise": 5543,
      "surround": 5544,
      "erson": 5545,
      "equal": 5546,
      "baby": 5547,
      "Pat": 5548,
      "planet": 5549,
      "write": 5550,
      "vehic": 5551,
      "uate": 5552,
      "cohol": 5553,
      "successful": 5554,
      "resh": 5555,
      "anything": 5556,
      "mob": 5557,
      "tu": 5558,
      "recommend": 5559,
      "Av": 5560,
      "standards": 5561,
      "swe": 5562,
      "anish": 5563,
      "situation": 5564,
      "domin": 5565,
      "stro": 5566,
      "tele": 5567,
      "identified": 5568,
      "spo": 5569,
      "Another": 5570,
      "poly": 5571,
      "trict": 5572,
      "western": 5573,
      "sess": 5574,
      "eyes": 5575,
      "gard": 5576,
      "Sch": 5577,
      "final": 5578,
      "responsible": 5579,
      "iles": 5580,
      "helps": 5581,
      "laws": 5582,
      "costs": 5583,
      "Internet": 5584,
      "applications": 5585,
      "iately": 5586,
      "rat": 5587,
      "processes": 5588,
      "neigh": 5589,
      "ishing": 5590,
      "vert": 5591,
      "expect": 5592,
      "bran": 5593,
      "France": 5594,
      "block": 5595,
      "Fig": 5596,
      "pes": 5597,
      "Ke": 5598,
      "mouth": 5599,
      "charge": 5600,
      "gives": 5601,
      "foreign": 5602,
      "ament": 5603,
      "copy": 5604,
      "passed": 5605,
      "typically": 5606,
      "goes": 5607,
      "numer": 5608,
      "philoso": 5609,
      "Law": 5610,
      "stra": 5611,
      "ker": 5612,
      "MD": 5613,
      "amm": 5614,
      "News": 5615,
      "giving": 5616,
      "hydro": 5617,
      "Bl": 5618,
      "importance": 5619,
      "Val": 5620,
      "effort": 5621,
      "speak": 5622,
      "gal": 5623,
      "beg": 5624,
      "stone": 5625,
      "perform": 5626,
      "aks": 5627,
      "thinking": 5628,
      "cas": 5629,
      "atab": 5630,
      "ologies": 5631,
      "ech": 5632,
      "Sal": 5633,
      "Museum": 5634,
      "MS": 5635,
      "Tod": 5636,
      "smaller": 5637,
      "qual": 5638,
      "cold": 5639,
      "Fed": 5640,
      "cious": 5641,
      "price": 5642,
      "Children": 5643,
      "imag": 5644,
      "ths": 5645,
      "organization": 5646,
      "bacteria": 5647,
      "Let": 5648,
      "breast": 5649,
      "hun": 5650,
      "ov": 5651,
      "pack": 5652,
      "negative": 5653,
      "El": 5654,
      "iest": 5655,
      "solution": 5656,
      "defined": 5657,
      "umb": 5658,
      "osis": 5659,
      "reduced": 5660,
      "Pal": 5661,
      "sac": 5662,
      "ston": 5663,
      "teaching": 5664,
      "ump": 5665,
      "apply": 5666,
      "chap": 5667,
      "Western": 5668,
      "Mal": 5669,
      "Sam": 5670,
      "ught": 5671,
      "gave": 5672,
      "medicine": 5673,
      "poses": 5674,
      "distance": 5675,
      "cand": 5676,
      "river": 5677,
      "regions": 5678,
      "ximately": 5679,
      "door": 5680,
      "lege": 5681,
      "Paul": 5682,
      "becomes": 5683,
      "surgery": 5684,
      "relatively": 5685,
      "Australia": 5686,
      "lap": 5687,
      "symb": 5688,
      "paign": 5689,
      "stim": 5690,
      "peace": 5691,
      "records": 5692,
      "acts": 5693,
      "illustr": 5694,
      "treated": 5695,
      "Catholic": 5696,
      "map": 5697,
      "firm": 5698,
      "cele": 5699,
      "BN": 5700,
      "ulated": 5701,
      "vill": 5702,
      "Service": 5703,
      "conce": 5704,
      "equipment": 5705,
      "Mary": 5706,
      "tor": 5707,
      "Their": 5708,
      "mountain": 5709,
      "rule": 5710,
      "gir": 5711,
      "preh": 5712,
      "Nat": 5713,
      "subst": 5714,
      "illness": 5715,
      "strateg": 5716,
      "plies": 5717,
      "letter": 5718,
      "Under": 5719,
      "mas": 5720,
      "Au": 5721,
      "standing": 5722,
      "Air": 5723,
      "remember": 5724,
      "reports": 5725,
      "plor": 5726,
      "Thus": 5727,
      "tribute": 5728,
      "PD": 5729,
      "historical": 5730,
      "Human": 5731,
      "east": 5732,
      "modif": 5733,
      "cry": 5734,
      "George": 5735,
      "ulty": 5736,
      "perfect": 5737,
      "worked": 5738,
      "College": 5739,
      "inse": 5740,
      "benefit": 5741,
      "financial": 5742,
      "Add": 5743,
      "president": 5744,
      "Hy": 5745,
      "deliver": 5746,
      "ordin": 5747,
      "status": 5748,
      "48": 5749,
      "cities": 5750,
      "techniques": 5751,
      "sugar": 5752,
      "odes": 5753,
      "Once": 5754,
      "Medicine": 5755,
      "female": 5756,
      "volution": 5757,
      "adop": 5758,
      "Bu": 5759,
      "mir": 5760,
      "gent": 5761,
      "demo": 5762,
      "forward": 5763,
      "ida": 5764,
      "showed": 5765,
      "ander": 5766,
      "ography": 5767,
      "consequ": 5768,
      "style": 5769,
      "Post": 5770,
      "gold": 5771,
      "nuclear": 5772,
      "compar": 5773,
      "kin": 5774,
      "izon": 5775,
      "via": 5776,
      "akes": 5777,
      "educational": 5778,
      "motion": 5779,
      "iar": 5780,
      "Sol": 5781,
      "elt": 5782,
      "hair": 5783,
      "providing": 5784,
      "calcul": 5785,
      "office": 5786,
      "device": 5787,
      "1990": 5788,
      "mod": 5789,
      "creation": 5790,
      "themat": 5791,
      "kers": 5792,
      "phone": 5793,
      "native": 5794,
      "186": 5795,
      "orts": 5796,
      "virt": 5797,
      "devices": 5798,
      "commercial": 5799,
      "fert": 5800,
      "belief": 5801,
      "onto": 5802,
      "existing": 5803,
      "consu": 5804,
      "cru": 5805,
      "crit": 5806,
      "Lu": 5807,
      "figure": 5808,
      "Hol": 5809,
      "findings": 5810,
      "dol": 5811,
      "OS": 5812,
      "78": 5813,
      "piece": 5814,
      "ibly": 5815,
      "trying": 5816,
      "oxy": 5817,
      "Tex": 5818,
      "respect": 5819,
      "nic": 5820,
      "Government": 5821,
      "189": 5822,
      "Fo": 5823,
      "Off": 5824,
      "commonly": 5825,
      "limit": 5826,
      "iction": 5827,
      "leave": 5828,
      "confl": 5829,
      "blue": 5830,
      "majority": 5831,
      "professional": 5832,
      "applied": 5833,
      "emot": 5834,
      "fields": 5835,
      "Phys": 5836,
      "celebr": 5837,
      "cers": 5838,
      "Sou": 5839,
      "ensity": 5840,
      "eight": 5841,
      "fill": 5842,
      "frame": 5843,
      "emissions": 5844,
      "Islam": 5845,
      "About": 5846,
      "astr": 5847,
      "race": 5848,
      "categ": 5849,
      "physic": 5850,
      "hyper": 5851,
      "functions": 5852,
      "completely": 5853,
      "hear": 5854,
      "Rich": 5855,
      "enh": 5856,
      "everything": 5857,
      "towards": 5858,
      "watch": 5859,
      "glass": 5860,
      "fix": 5861,
      "differences": 5862,
      "lived": 5863,
      "aid": 5864,
      "rules": 5865,
      "suggests": 5866,
      "auth": 5867,
      "purch": 5868,
      "Spanish": 5869,
      "Germany": 5870,
      "articles": 5871,
      "ISBN": 5872,
      "capacity": 5873,
      "reet": 5874,
      "divid": 5875,
      "inking": 5876,
      "disorder": 5877,
      "sla": 5878,
      "DA": 5879,
      "survey": 5880,
      "favor": 5881,
      "Are": 5882,
      "leaves": 5883,
      "thousands": 5884,
      "Republic": 5885,
      "surpr": 5886,
      "cure": 5887,
      "upper": 5888,
      "efficient": 5889,
      "emph": 5890,
      "plications": 5891,
      "Str": 5892,
      "expand": 5893,
      "amp": 5894,
      "worth": 5895,
      "kid": 5896,
      "antib": 5897,
      "ule": 5898,
      "distribution": 5899,
      "Plan": 5900,
      "alcohol": 5901,
      "separate": 5902,
      "estimated": 5903,
      "reasons": 5904,
      "interesting": 5905,
      "Found": 5906,
      "aller": 5907,
      "chance": 5908,
      "genes": 5909,
      "fruit": 5910,
      "reveal": 5911,
      "IP": 5912,
      "zy": 5913,
      "sets": 5914,
      "Project": 5915,
      "Space": 5916,
      "creating": 5917,
      "immune": 5918,
      "bes": 5919,
      "Ca": 5920,
      "beaut": 5921,
      "44": 5922,
      "urs": 5923,
      "Two": 5924,
      "constant": 5925,
      "direction": 5926,
      "Sub": 5927,
      "rot": 5928,
      "faith": 5929,
      "Mac": 5930,
      "didn": 5931,
      "Today": 5932,
      "models": 5933,
      "iron": 5934,
      "failure": 5935,
      "gi": 5936,
      "presents": 5937,
      "picture": 5938,
      "rew": 5939,
      "atta": 5940,
      "teacher": 5941,
      "prop": 5942,
      "practices": 5943,
      "square": 5944,
      "Japanese": 5945,
      "Scient": 5946,
      "kept": 5947,
      "bridge": 5948,
      "tas": 5949,
      "Tur": 5950,
      "increases": 5951,
      "stic": 5952,
      "Information": 5953,
      "observed": 5954,
      "Wind": 5955,
      "served": 5956,
      "presence": 5957,
      "staff": 5958,
      "professor": 5959,
      "Scot": 5960,
      "accom": 5961,
      "factor": 5962,
      "cin": 5963,
      "approximately": 5964,
      "tissue": 5965,
      "alter": 5966,
      "transl": 5967,
      "55": 5968,
      "attra": 5969,
      "Pac": 5970,
      "Sen": 5971,
      "opportunity": 5972,
      "unit": 5973,
      "male": 5974,
      "radio": 5975,
      "harm": 5976,
      "presented": 5977,
      "Food": 5978,
      "southern": 5979,
      "cycle": 5980,
      "Development": 5981,
      "oral": 5982,
      "users": 5983,
      "Atl": 5984,
      "cking": 5985,
      "wards": 5986,
      "shape": 5987,
      "Mexico": 5988,
      "mi": 5989,
      "augh": 5990,
      "sufficient": 5991,
      "wal": 5992,
      "inno": 5993,
      "ultim": 5994,
      "ET": 5995,
      "party": 5996,
      "friends": 5997,
      "populations": 5998,
      "examples": 5999,
      "sky": 6000,
      "appeared": 6001,
      "industrial": 6002,
      "Every": 6003,
      "suit": 6004,
      "instit": 6005,
      "1998": 6006,
      "adult": 6007,
      "highest": 6008,
      "milk": 6009,
      "Bas": 6010,
      "asion": 6011,
      "overall": 6012,
      "legisl": 6013,
      "Profess": 6014,
      "noted": 6015,
      "contract": 6016,
      "communication": 6017,
      "Civil": 6018,
      "oma": 6019,
      "wanted": 6020,
      "plans": 6021,
      "sample": 6022,
      "stories": 6023,
      "court": 6024,
      "running": 6025,
      "coal": 6026,
      "element": 6027,
      "destroy": 6028,
      "rig": 6029,
      "journal": 6030,
      "ams": 6031,
      "offers": 6032,
      "Mart": 6033,
      "ols": 6034,
      "slight": 6035,
      "whom": 6036,
      "____": 6037,
      "exhib": 6038,
      "Dire": 6039,
      "Lou": 6040,
      "wet": 6041,
      "carried": 6042,
      "clinical": 6043,
      "organic": 6044,
      "Organ": 6045,
      "Pho": 6046,
      "enge": 6047,
      "Energy": 6048,
      "archite": 6049,
      "eco": 6050,
      "iments": 6051,
      "ado": 6052,
      "drive": 6053,
      "killed": 6054,
      "Robert": 6055,
      "Jose": 6056,
      "enjoy": 6057,
      "ingu": 6058,
      "assign": 6059,
      "official": 6060,
      "mail": 6061,
      "Arab": 6062,
      "Note": 6063,
      "immediately": 6064,
      "choice": 6065,
      "resource": 6066,
      "ively": 6067,
      "ocean": 6068,
      "Thomas": 6069,
      "powerful": 6070,
      "released": 6071,
      "forced": 6072,
      "Art": 6073,
      "visual": 6074,
      "thesis": 6075,
      "hur": 6076,
      "istry": 6077,
      "iage": 6078,
      "Jer": 6079,
      "believed": 6080,
      "instance": 6081,
      "Virgin": 6082,
      "omb": 6083,
      "RO": 6084,
      "Texas": 6085,
      "restrict": 6086,
      "NO": 6087,
      "grees": 6088,
      "Library": 6089,
      "soft": 6090,
      "initi": 6091,
      "fresh": 6092,
      "vessel": 6093,
      "dra": 6094,
      "Ben": 6095,
      "1997": 6096,
      "ternal": 6097,
      "scr": 6098,
      "188": 6099,
      "campaign": 6100,
      "arrow": 6101,
      "yl": 6102,
      "lease": 6103,
      "breath": 6104,
      "eventually": 6105,
      "root": 6106,
      "chief": 6107,
      "ologist": 6108,
      "signs": 6109,
      "famous": 6110,
      "Students": 6111,
      "prefer": 6112,
      "steps": 6113,
      "prom": 6114,
      "classroom": 6115,
      "volume": 6116,
      "insul": 6117,
      "decades": 6118,
      "moment": 6119,
      "pts": 6120,
      "sexual": 6121,
      "transfer": 6122,
      "enty": 6123,
      "gypt": 6124,
      "reference": 6125,
      "annual": 6126,
      "isn": 6127,
      "absor": 6128,
      "ii": 6129,
      "emphas": 6130,
      "descrip": 6131,
      "excl": 6132,
      "heavy": 6133,
      "trig": 6134,
      "Hen": 6135,
      "degrees": 6136,
      "patterns": 6137,
      "Review": 6138,
      "authors": 6139,
      "machine": 6140,
      "appoint": 6141,
      "liqu": 6142,
      "cription": 6143,
      "Mil": 6144,
      "Bra": 6145,
      "bodies": 6146,
      "cting": 6147,
      "ica": 6148,
      "religion": 6149,
      "EC": 6150,
      "opy": 6151,
      "director": 6152,
      "touch": 6153,
      "northern": 6154,
      "frequently": 6155,
      "everyone": 6156,
      "wrong": 6157,
      "bird": 6158,
      "disorders": 6159,
      "choose": 6160,
      "turned": 6161,
      "Gra": 6162,
      "toxic": 6163,
      "300": 6164,
      "maxim": 6165,
      "achi": 6166,
      "camp": 6167,
      "pages": 6168,
      "conservation": 6169,
      "grade": 6170,
      "rid": 6171,
      "opin": 6172,
      "organizations": 6173,
      "gather": 6174,
      "feature": 6175,
      "cycl": 6176,
      "introduced": 6177,
      "Bel": 6178,
      "signal": 6179,
      "imens": 6180,
      "details": 6181,
      "freedom": 6182,
      "oles": 6183,
      "structures": 6184,
      "Wil": 6185,
      "wealth": 6186,
      "release": 6187,
      "km": 6188,
      "gro": 6189,
      "Pacific": 6190,
      "Lord": 6191,
      "ologists": 6192,
      "digital": 6193,
      "zing": 6194,
      "tradition": 6195,
      "neuro": 6196,
      "Asia": 6197,
      "Greek": 6198,
      "grass": 6199,
      "hypo": 6200,
      "changing": 6201,
      "bottom": 6202,
      "Egypt": 6203,
      "datab": 6204,
      "mph": 6205,
      "drome": 6206,
      "assu": 6207,
      "udes": 6208,
      "independent": 6209,
      "Treat": 6210,
      "PC": 6211,
      "ored": 6212,
      "Social": 6213,
      "ensus": 6214,
      "unders": 6215,
      "Mag": 6216,
      "valu": 6217,
      "minor": 6218,
      "flood": 6219,
      "46": 6220,
      "iff": 6221,
      "extremely": 6222,
      "UK": 6223,
      "carry": 6224,
      "compreh": 6225,
      "Hel": 6226,
      "context": 6227,
      "respe": 6228,
      "preci": 6229,
      "ato": 6230,
      "alle": 6231,
      "ju": 6232,
      "performed": 6233,
      "Ken": 6234,
      "Ter": 6235,
      "collabor": 6236,
      "conducted": 6237,
      "walk": 6238,
      "notes": 6239,
      "isol": 6240,
      "Mass": 6241,
      "sav": 6242,
      "combination": 6243,
      "hospital": 6244,
      "porary": 6245,
      "alternative": 6246,
      "Old": 6247,
      "comfort": 6248,
      "Def": 6249,
      "determined": 6250,
      "core": 6251,
      "existence": 6252,
      "removed": 6253,
      "Muslim": 6254,
      "vary": 6255,
      "pover": 6256,
      "replace": 6257,
      "operations": 6258,
      "territ": 6259,
      "planning": 6260,
      "47": 6261,
      "views": 6262,
      "atmosphere": 6263,
      "properties": 6264,
      "truth": 6265,
      "photograph": 6266,
      "actual": 6267,
      "prison": 6268,
      "supported": 6269,
      "oph": 6270,
      "meeting": 6271,
      "vin": 6272,
      "oxygen": 6273,
      "White": 6274,
      "faces": 6275,
      "Fl": 6276,
      "output": 6277,
      "cies": 6278,
      "Common": 6279,
      "Its": 6280,
      "Oh": 6281,
      "battle": 6282,
      "univers": 6283,
      "vas": 6284,
      "usual": 6285,
      "tren": 6286,
      "partners": 6287,
      "save": 6288,
      "dog": 6289,
      "track": 6290,
      "referred": 6291,
      "ifically": 6292,
      "foss": 6293,
      "electricity": 6294,
      "Commission": 6295,
      "exposed": 6296,
      "learned": 6297,
      "Sovi": 6298,
      "novel": 6299,
      "netic": 6300,
      "balance": 6301,
      "iful": 6302,
      "ror": 6303,
      "buy": 6304,
      "strate": 6305,
      "discussion": 6306,
      "ware": 6307,
      "49": 6308,
      "Both": 6309,
      "Central": 6310,
      "consumption": 6311,
      "clearly": 6312,
      "Mill": 6313,
      "iss": 6314,
      "Smith": 6315,
      "itors": 6316,
      "magn": 6317,
      "buildings": 6318,
      "causing": 6319,
      "disci": 6320,
      "Bay": 6321,
      "pping": 6322,
      "nur": 6323,
      "waters": 6324,
      "schol": 6325,
      "astern": 6326,
      "circum": 6327,
      "crim": 6328,
      "Fam": 6329,
      "prec": 6330,
      "owners": 6331,
      "huge": 6332,
      "rang": 6333,
      "Stand": 6334,
      "Bir": 6335,
      "Ant": 6336,
      "significantly": 6337,
      "Office": 6338,
      "Dise": 6339,
      "Mos": 6340,
      "advantage": 6341,
      "UR": 6342,
      "sell": 6343,
      "Del": 6344,
      "Using": 6345,
      "mort": 6346,
      "Ir": 6347,
      "finding": 6348,
      "1996": 6349,
      "Histor": 6350,
      "infections": 6351,
      "sustainable": 6352,
      "uters": 6353,
      "III": 6354,
      "Like": 6355,
      "ga": 6356,
      "temperatures": 6357,
      "dated": 6358,
      "push": 6359,
      "Last": 6360,
      "ias": 6361,
      "thr": 6362,
      "island": 6363,
      "ience": 6364,
      "accoun": 6365,
      "Island": 6366,
      "message": 6367,
      "Labor": 6368,
      "decisions": 6369,
      "grant": 6370,
      "controlled": 6371,
      "Court": 6372,
      "Latin": 6373,
      "fear": 6374,
      "otic": 6375,
      "ships": 6376,
      "holds": 6377,
      "Further": 6378,
      "greg": 6379,
      "sand": 6380,
      "please": 6381,
      "store": 6382,
      "ula": 6383,
      "ux": 6384,
      "las": 6385,
      "edge": 6386,
      "army": 6387,
      "chronic": 6388,
      "vaccine": 6389,
      "master": 6390,
      "raised": 6391,
      "index": 6392,
      "thick": 6393,
      "oxide": 6394,
      "connected": 6395,
      "brother": 6396,
      "homes": 6397,
      "ffic": 6398,
      "seed": 6399,
      "1995": 6400,
      "Army": 6401,
      "technologies": 6402,
      "components": 6403,
      "ager": 6404,
      "tel": 6405,
      "htm": 6406,
      "starting": 6407,
      "becoming": 6408,
      "screen": 6409,
      "excess": 6410,
      "99": 6411,
      "Em": 6412,
      "policies": 6413,
      "pow": 6414,
      "Glo": 6415,
      "andom": 6416,
      "CC": 6417,
      "college": 6418,
      "vitamin": 6419,
      "diagnosis": 6420,
      "PS": 6421,
      "contrast": 6422,
      "ML": 6423,
      "Flor": 6424,
      "norm": 6425,
      "fif": 6426,
      "Elect": 6427,
      "mostly": 6428,
      "previously": 6429,
      "bell": 6430,
      "plate": 6431,
      "aint": 6432,
      "istan": 6433,
      "shop": 6434,
      "procedure": 6435,
      "Sha": 6436,
      "numerous": 6437,
      "Teach": 6438,
      "formal": 6439,
      "grand": 6440,
      "acade": 6441,
      "pon": 6442,
      "wonder": 6443,
      "Test": 6444,
      "layer": 6445,
      "Jud": 6446,
      "reached": 6447,
      "sort": 6448,
      "orial": 6449,
      "1980": 6450,
      "infr": 6451,
      "fundam": 6452,
      "characteristics": 6453,
      "relev": 6454,
      "chemicals": 6455,
      "looked": 6456,
      "resulting": 6457,
      "Mem": 6458,
      "resistance": 6459,
      "jun": 6460,
      "Contro": 6461,
      "wel": 6462,
      "mathemat": 6463,
      "intended": 6464,
      "principles": 6465,
      "recommended": 6466,
      "LE": 6467,
      "wash": 6468,
      "requirements": 6469,
      "Emp": 6470,
      "iled": 6471,
      "email": 6472,
      "officials": 6473,
      "units": 6474,
      "widely": 6475,
      "classes": 6476,
      "ky": 6477,
      "Book": 6478,
      "visible": 6479,
      "Joseph": 6480,
      "bud": 6481,
      "fortun": 6482,
      "medications": 6483,
      "Life": 6484,
      "situ": 6485,
      "consul": 6486,
      "Cap": 6487,
      "Well": 6488,
      "barr": 6489,
      "internal": 6490,
      "institutions": 6491,
      "Second": 6492,
      "yourself": 6493,
      "remained": 6494,
      "station": 6495,
      "Net": 6496,
      "heard": 6497,
      "possess": 6498,
      "items": 6499,
      "Bur": 6500,
      "tour": 6501,
      "muscle": 6502,
      "persons": 6503,
      "nan": 6504,
      "farmers": 6505,
      "expression": 6506,
      "Cy": 6507,
      "cis": 6508,
      "risks": 6509,
      "film": 6510,
      "happen": 6511,
      "Environmental": 6512,
      "poverty": 6513,
      "Get": 6514,
      "proposed": 6515,
      "experts": 6516,
      "py": 6517,
      "Grou": 6518,
      "literature": 6519,
      "task": 6520,
      "Ver": 6521,
      "Econom": 6522,
      "ounced": 6523,
      "spent": 6524,
      "strength": 6525,
      "95": 6526,
      "clop": 6527,
      "uration": 6528,
      "hael": 6529,
      "prices": 6530,
      "speech": 6531,
      "initial": 6532,
      "phase": 6533,
      "uff": 6534,
      "Any": 6535,
      "Women": 6536,
      "prepar": 6537,
      "electrical": 6538,
      "raise": 6539,
      "Fol": 6540,
      "pel": 6541,
      "violence": 6542,
      "bow": 6543,
      "roll": 6544,
      "ellig": 6545,
      "hop": 6546,
      "conscious": 6547,
      "setting": 6548,
      "goals": 6549,
      "nut": 6550,
      "EL": 6551,
      "server": 6552,
      "tributed": 6553,
      "sin": 6554,
      "primarily": 6555,
      "conflict": 6556,
      "wife": 6557,
      "metal": 6558,
      "statement": 6559,
      "concern": 6560,
      "intellig": 6561,
      "anyone": 6562,
      "containing": 6563,
      "authority": 6564,
      "Louis": 6565,
      "largely": 6566,
      "Sum": 6567,
      "convent": 6568,
      "rail": 6569,
      "Port": 6570,
      "Charles": 6571,
      "snow": 6572,
      "scan": 6573,
      "exc": 6574,
      "custom": 6575,
      "Bro": 6576,
      "da": 6577,
      "ost": 6578,
      "icy": 6579,
      "Cr": 6580,
      "reducing": 6581,
      "samples": 6582,
      "belong": 6583,
      "trial": 6584,
      "engineering": 6585,
      "strategies": 6586,
      "asp": 6587,
      "connection": 6588,
      "shr": 6589,
      "opportunities": 6590,
      "remove": 6591,
      "decided": 6592,
      "Bal": 6593,
      "mentioned": 6594,
      "Mod": 6595,
      "pher": 6596,
      "spot": 6597,
      "execut": 6598,
      "burg": 6599,
      "urally": 6600,
      "linked": 6601,
      "helped": 6602,
      "god": 6603,
      "amounts": 6604,
      "fine": 6605,
      "comment": 6606,
      "advanced": 6607,
      "occurred": 6608,
      "Virginia": 6609,
      "zone": 6610,
      "reds": 6611,
      "tested": 6612,
      "returned": 6613,
      "Natural": 6614,
      "extensive": 6615,
      "Such": 6616,
      "Commit": 6617,
      "hundred": 6618,
      "wid": 6619,
      "reaction": 6620,
      "Dar": 6621,
      "aspe": 6622,
      "mel": 6623,
      "chain": 6624,
      "Alex": 6625,
      "SS": 6626,
      "adapt": 6627,
      "Pers": 6628,
      "secret": 6629,
      "joint": 6630,
      "fly": 6631,
      "Foundation": 6632,
      "anks": 6633,
      "indicate": 6634,
      "nations": 6635,
      "atell": 6636,
      "interpret": 6637,
      "pray": 6638,
      "ios": 6639,
      "cope": 6640,
      "marine": 6641,
      "options": 6642,
      "ville": 6643,
      "apparent": 6644,
      "habitat": 6645,
      "evol": 6646,
      "Soviet": 6647,
      "Pan": 6648,
      "iders": 6649,
      "shar": 6650,
      "citizens": 6651,
      "fee": 6652,
      "CH": 6653,
      "discover": 6654,
      "promis": 6655,
      "Dan": 6656,
      "berg": 6657,
      "obvious": 6658,
      "oted": 6659,
      "astro": 6660,
      "challenges": 6661,
      "Div": 6662,
      "sector": 6663,
      "Who": 6664,
      "inher": 6665,
      "participants": 6666,
      "perman": 6667,
      "doub": 6668,
      "nest": 6669,
      "exactly": 6670,
      "vul": 6671,
      "involve": 6672,
      "pregnancy": 6673,
      "Ly": 6674,
      "Cle": 6675,
      "itage": 6676,
      "cris": 6677,
      "alg": 6678,
      "jour": 6679,
      "Viet": 6680,
      "Wall": 6681,
      "interested": 6682,
      "invent": 6683,
      "Blo": 6684,
      "feeding": 6685,
      "links": 6686,
      "Prote": 6687,
      "completed": 6688,
      "ba": 6689,
      "haz": 6690,
      "studied": 6691,
      "divided": 6692,
      "76": 6693,
      "dynam": 6694,
      "dollar": 6695,
      "mist": 6696,
      "emergency": 6697,
      "eties": 6698,
      "zo": 6699,
      "Sea": 6700,
      "aspects": 6701,
      "fra": 6702,
      "eggs": 6703,
      "forests": 6704,
      "mere": 6705,
      "substant": 6706,
      "Photo": 6707,
      "Mat": 6708,
      "cup": 6709,
      "edition": 6710,
      "revolution": 6711,
      "uded": 6712,
      "languages": 6713,
      "Rad": 6714,
      "background": 6715,
      "85": 6716,
      "continues": 6717,
      "wit": 6718,
      "inner": 6719,
      "improv": 6720,
      "pun": 6721,
      "Lake": 6722,
      "Figure": 6723,
      "Agr": 6724,
      "allowing": 6725,
      "reduction": 6726,
      "suggested": 6727,
      "fing": 6728,
      "mand": 6729,
      "immigr": 6730,
      "treatments": 6731,
      "multi": 6732,
      "proto": 6733,
      "Carol": 6734,
      "Find": 6735,
      "solid": 6736,
      "phenomen": 6737,
      "fal": 6738,
      "adjust": 6739,
      "listed": 6740,
      "hit": 6741,
      "iling": 6742,
      "technique": 6743,
      "arms": 6744,
      "igen": 6745,
      "recorded": 6746,
      "ague": 6747,
      "manner": 6748,
      "1994": 6749,
      "brief": 6750,
      "incorpor": 6751,
      "Where": 6752,
      "filled": 6753,
      "calls": 6754,
      "employment": 6755,
      "collected": 6756,
      "Guide": 6757,
      "reality": 6758,
      "trou": 6759,
      "assessment": 6760,
      "umn": 6761,
      "finally": 6762,
      "topic": 6763,
      "prepared": 6764,
      "Please": 6765,
      "optim": 6766,
      "challenge": 6767,
      "marked": 6768,
      "Peter": 6769,
      "ny": 6770,
      "pred": 6771,
      "saying": 6772,
      "biological": 6773,
      "elimin": 6774,
      "concerns": 6775,
      "42": 6776,
      "Sup": 6777,
      "library": 6778,
      "dram": 6779,
      "closed": 6780,
      "nit": 6781,
      "Those": 6782,
      "input": 6783,
      "ara": 6784,
      "letters": 6785,
      "double": 6786,
      "Chic": 6787,
      "operating": 6788,
      "extent": 6789,
      "agricultural": 6790,
      "explor": 6791,
      "encourage": 6792,
      "meant": 6793,
      "leader": 6794,
      "Henry": 6795,
      "lun": 6796,
      "easier": 6797,
      "Cancer": 6798,
      "corn": 6799,
      "Federal": 6800,
      "combined": 6801,
      "Acade": 6802,
      "ete": 6803,
      "properly": 6804,
      "Russian": 6805,
      "Vis": 6806,
      "describe": 6807,
      "tension": 6808,
      "mode": 6809,
      "Richard": 6810,
      "definition": 6811,
      "storage": 6812,
      "Technology": 6813,
      "ota": 6814,
      "Class": 6815,
      "promote": 6816,
      "thes": 6817,
      "crops": 6818,
      "yellow": 6819,
      "aling": 6820,
      "satis": 6821,
      "Long": 6822,
      "ya": 6823,
      "ads": 6824,
      "bank": 6825,
      "frequency": 6826,
      "clim": 6827,
      "married": 6828,
      "san": 6829,
      "recognized": 6830,
      "Report": 6831,
      "improved": 6832,
      "infected": 6833,
      "Middle": 6834,
      "THE": 6835,
      "syndrome": 6836,
      "injury": 6837,
      "agues": 6838,
      "cratic": 6839,
      "regarding": 6840,
      "otherwise": 6841,
      "storm": 6842,
      "Mars": 6843,
      "houses": 6844,
      "Four": 6845,
      "kinds": 6846,
      "Bet": 6847,
      "domestic": 6848,
      "iveness": 6849,
      "depression": 6850,
      "Ann": 6851,
      "technical": 6852,
      "greatest": 6853,
      "185": 6854,
      "aches": 6855,
      "measured": 6856,
      "daugh": 6857,
      "drop": 6858,
      "Michael": 6859,
      "Fort": 6860,
      "processing": 6861,
      "Publ": 6862,
      "expensive": 6863,
      "producing": 6864,
      "ern": 6865,
      "Francis": 6866,
      "43": 6867,
      "fro": 6868,
      "looks": 6869,
      "experiences": 6870,
      "Committee": 6871,
      "familiar": 6872,
      "dangerous": 6873,
      "Yet": 6874,
      "minister": 6875,
      "vast": 6876,
      "purposes": 6877,
      "spa": 6878,
      "Florida": 6879,
      "pick": 6880,
      "meat": 6881,
      "files": 6882,
      "assum": 6883,
      "offered": 6884,
      "Wild": 6885,
      "click": 6886,
      "crib": 6887,
      "Professor": 6888,
      "paid": 6889,
      "periods": 6890,
      "batter": 6891,
      "rum": 6892,
      "Only": 6893,
      "settle": 6894,
      "Chap": 6895,
      "ilit": 6896,
      "height": 6897,
      "lose": 6898,
      "ault": 6899,
      "games": 6900,
      "sick": 6901,
      "facilities": 6902,
      "41": 6903,
      "Ill": 6904,
      "pil": 6905,
      "warming": 6906,
      "IA": 6907,
      "bing": 6908,
      "efficiency": 6909,
      "Ham": 6910,
      "Out": 6911,
      "argument": 6912,
      "begins": 6913,
      "UC": 6914,
      "request": 6915,
      "explained": 6916,
      "lie": 6917,
      "chapter": 6918,
      "pieces": 6919,
      "regional": 6920,
      "ception": 6921,
      "Study": 6922,
      "traffic": 6923,
      "productive": 6924,
      "victim": 6925,
      "Harr": 6926,
      "fluid": 6927,
      "discuss": 6928,
      "unless": 6929,
      "Britain": 6930,
      "random": 6931,
      "Mer": 6932,
      "relevant": 6933,
      "positions": 6934,
      "garden": 6935,
      "played": 6936,
      "documents": 6937,
      "orm": 6938,
      "grown": 6939,
      "neighbor": 6940,
      "Bud": 6941,
      "renew": 6942,
      "spective": 6943,
      "flight": 6944,
      "ody": 6945,
      "slightly": 6946,
      "enem": 6947,
      "organisms": 6948,
      "rob": 6949,
      "tun": 6950,
      "stars": 6951,
      "inches": 6952,
      "governments": 6953,
      "particles": 6954,
      "proteins": 6955,
      "HO": 6956,
      "Inde": 6957,
      "Nature": 6958,
      "ien": 6959,
      "spl": 6960,
      "excell": 6961,
      "selection": 6962,
      "cert": 6963,
      "morning": 6964,
      "fare": 6965,
      "ray": 6966,
      "ecolog": 6967,
      "bright": 6968,
      "plastic": 6969,
      "Studies": 6970,
      "cium": 6971,
      "expert": 6972,
      "ulum": 6973,
      "gall": 6974,
      "explan": 6975,
      "agencies": 6976,
      "detailed": 6977,
      "title": 6978,
      "seeds": 6979,
      "advance": 6980,
      "Southern": 6981,
      "sides": 6982,
      "oppos": 6983,
      "bear": 6984,
      "plat": 6985,
      "compe": 6986,
      "CA": 6987,
      "IM": 6988,
      "sched": 6989,
      "imer": 6990,
      "practical": 6991,
      "solute": 6992,
      "advice": 6993,
      "floor": 6994,
      "IL": 6995,
      "teeth": 6996,
      "accurate": 6997,
      "wish": 6998,
      "trust": 6999,
      "subjects": 7000,
      "Inc": 7001,
      "pha": 7002,
      "ava": 7003,
      "Stat": 7004,
      "cide": 7005,
      "paint": 7006,
      "1970": 7007,
      "Home": 7008,
      "wave": 7009,
      "mainly": 7010,
      "Vietnam": 7011,
      "Ox": 7012,
      "Chicago": 7013,
      "claims": 7014,
      "fle": 7015,
      "keeping": 7016,
      "distingu": 7017,
      "mur": 7018,
      ".;": 7019,
      "showing": 7020,
      "hundreds": 7021,
      "Rem": 7022,
      "sembl": 7023,
      "crop": 7024,
      "foc": 7025,
      "lights": 7026,
      "discovery": 7027,
      "liquid": 7028,
      "prevention": 7029,
      "sensitive": 7030,
      "Frank": 7031,
      "happens": 7032,
      "Group": 7033,
      "TO": 7034,
      "isation": 7035,
      "ordinary": 7036,
      "send": 7037,
      "reef": 7038,
      "tried": 7039,
      "destru": 7040,
      "pollution": 7041,
      "moon": 7042,
      "valid": 7043,
      "Er": 7044,
      "iced": 7045,
      "jobs": 7046,
      "Data": 7047,
      "attacks": 7048,
      "Ve": 7049,
      "certainly": 7050,
      "Back": 7051,
      "selected": 7052,
      "Ev": 7053,
      "depending": 7054,
      "esity": 7055,
      "centuries": 7056,
      "goods": 7057,
      "Through": 7058,
      "millions": 7059,
      "Agric": 7060,
      "Sever": 7061,
      "drink": 7062,
      "capable": 7063,
      "database": 7064,
      "shel": 7065,
      "lets": 7066,
      "Philip": 7067,
      "profit": 7068,
      "responsibility": 7069,
      "vity": 7070,
      "district": 7071,
      "adopted": 7072,
      "discipl": 7073,
      "involves": 7074,
      "typical": 7075,
      "400": 7076,
      "drinking": 7077,
      "Global": 7078,
      "Sat": 7079,
      "aqu": 7080,
      "universe": 7081,
      "gment": 7082,
      "residents": 7083,
      "].": 7084,
      "normally": 7085,
      "Before": 7086,
      "Gl": 7087,
      "IR": 7088,
      "closely": 7089,
      "scen": 7090,
      "Sa": 7091,
      "dial": 7092,
      "usal": 7093,
      "song": 7094,
      "stitutional": 7095,
      "CR": 7096,
      "knew": 7097,
      "ald": 7098,
      "experienced": 7099,
      "CE": 7100,
      "profession": 7101,
      "doctors": 7102,
      "subs": 7103,
      "gov": 7104,
      "justice": 7105,
      "gun": 7106,
      "rapidly": 7107,
      "fundamental": 7108,
      "Control": 7109,
      "ching": 7110,
      "math": 7111,
      "Engine": 7112,
      "zz": 7113,
      "unte": 7114,
      "quate": 7115,
      "window": 7116,
      "latest": 7117,
      "Free": 7118,
      "150": 7119,
      "horse": 7120,
      "Paris": 7121,
      "concerned": 7122,
      "stock": 7123,
      "BS": 7124,
      "subsequ": 7125,
      "List": 7126,
      "aces": 7127,
      "oss": 7128,
      "Therefore": 7129,
      "stroke": 7130,
      "HD": 7131,
      "Year": 7132,
      "Di": 7133,
      "cook": 7134,
      "derived": 7135,
      "hearing": 7136,
      "iring": 7137,
      "rural": 7138,
      "rupt": 7139,
      "alog": 7140,
      "weap": 7141,
      "ek": 7142,
      "ours": 7143,
      "ropical": 7144,
      "crisis": 7145,
      "strugg": 7146,
      "protected": 7147,
      "Cons": 7148,
      "oting": 7149,
      "sight": 7150,
      "flag": 7151,
      "latter": 7152,
      "Ocean": 7153,
      "pin": 7154,
      "Instead": 7155,
      "strategy": 7156,
      "credit": 7157,
      "thma": 7158,
      "umin": 7159,
      "thousand": 7160,
      "nav": 7161,
      "motor": 7162,
      "salt": 7163,
      "error": 7164,
      "felt": 7165,
      "resolution": 7166,
      "contem": 7167,
      "follows": 7168,
      "IDS": 7169,
      "correspond": 7170,
      "Nations": 7171,
      "plus": 7172,
      "iday": 7173,
      "MA": 7174,
      "monitoring": 7175,
      "05": 7176,
      "helping": 7177,
      "Land": 7178,
      "oth": 7179,
      "rence": 7180,
      "surance": 7181,
      "despite": 7182,
      "medication": 7183,
      "appearance": 7184,
      "gone": 7185,
      "taught": 7186,
      "acters": 7187,
      "ka": 7188,
      "vict": 7189,
      "possibly": 7190,
      "Care": 7191,
      "Rights": 7192,
      "symbol": 7193,
      "crow": 7194,
      "facts": 7195,
      "88": 7196,
      "dogs": 7197,
      "Ze": 7198,
      "external": 7199,
      "accepted": 7200,
      "Penn": 7201,
      "Company": 7202,
      "ission": 7203,
      "register": 7204,
      "clopedia": 7205,
      "Mad": 7206,
      "anx": 7207,
      "dent": 7208,
      "lip": 7209,
      "laboratory": 7210,
      "eastern": 7211,
      "nutrition": 7212,
      "advoc": 7213,
      "obtained": 7214,
      "candid": 7215,
      "potentially": 7216,
      "Men": 7217,
      "cket": 7218,
      "catch": 7219,
      "liber": 7220,
      "focused": 7221,
      "forming": 7222,
      "marks": 7223,
      "rought": 7224,
      "?\"": 7225,
      "Administr": 7226,
      "beautiful": 7227,
      "tons": 7228,
      "Lincol": 7229,
      "decade": 7230,
      "deaths": 7231,
      "awareness": 7232,
      "specifically": 7233,
      "historic": 7234,
      "mobile": 7235,
      "ION": 7236,
      "ered": 7237,
      "instruction": 7238,
      "lock": 7239,
      "Ohio": 7240,
      "depth": 7241,
      "Know": 7242,
      "gic": 7243,
      "ano": 7244,
      "Canadian": 7245,
      "Demo": 7246,
      "leads": 7247,
      "orn": 7248,
      "colleagues": 7249,
      "dut": 7250,
      "77": 7251,
      "circu": 7252,
      "fur": 7253,
      "stated": 7254,
      "walls": 7255,
      "faster": 7256,
      "strain": 7257,
      "vegetables": 7258,
      "apart": 7259,
      ".|": 7260,
      "iger": 7261,
      "unknown": 7262,
      "Lincoln": 7263,
      "Cre": 7264,
      "thetic": 7265,
      "render": 7266,
      "voice": 7267,
      "Wik": 7268,
      "abol": 7269,
      "comput": 7270,
      "component": 7271,
      "PM": 7272,
      "satell": 7273,
      "claimed": 7274,
      "66": 7275,
      "Click": 7276,
      "aran": 7277,
      "curric": 7278,
      "Ef": 7279,
      "Clim": 7280,
      "narrow": 7281,
      "logical": 7282,
      "concepts": 7283,
      "depends": 7284,
      "harvest": 7285,
      "Sto": 7286,
      "agency": 7287,
      "conduct": 7288,
      "Among": 7289,
      "sip": 7290,
      "stret": 7291,
      "emit": 7292,
      "Ha": 7293,
      "relationships": 7294,
      "estimates": 7295,
      "matic": 7296,
      "tructure": 7297,
      "Management": 7298,
      "AND": 7299,
      "soldiers": 7300,
      "Bre": 7301,
      "”.": 7302,
      "feeling": 7303,
      "mm": 7304,
      "bid": 7305,
      "advis": 7306,
      "founded": 7307,
      "Clin": 7308,
      "Pop": 7309,
      "aer": 7310,
      "atever": 7311,
      "principle": 7312,
      "indeed": 7313,
      "01": 7314,
      "anced": 7315,
      "util": 7316,
      "funding": 7317,
      "pig": 7318,
      "moral": 7319,
      "ican": 7320,
      "sud": 7321,
      "string": 7322,
      "astronom": 7323,
      "Good": 7324,
      "seek": 7325,
      "contribute": 7326,
      "solutions": 7327,
      "hydr": 7328,
      "Northern": 7329,
      "Early": 7330,
      "bio": 7331,
      "characters": 7332,
      "valuable": 7333,
      "1960": 7334,
      "park": 7335,
      "assistance": 7336,
      "cules": 7337,
      "rogen": 7338,
      "procedures": 7339,
      "OF": 7340,
      "Tem": 7341,
      "kil": 7342,
      "celer": 7343,
      "Bible": 7344,
      "Copy": 7345,
      "inations": 7346,
      "academic": 7347,
      "conventional": 7348,
      "gap": 7349,
      "notice": 7350,
      "1992": 7351,
      "consists": 7352,
      "Russia": 7353,
      "vehicle": 7354,
      "option": 7355,
      "agriculture": 7356,
      "absolute": 7357,
      "massive": 7358,
      "speaking": 7359,
      "osph": 7360,
      "happened": 7361,
      "Eli": 7362,
      "plane": 7363,
      "originally": 7364,
      "shell": 7365,
      "maximum": 7366,
      "represented": 7367,
      "Fre": 7368,
      "Nav": 7369,
      "gender": 7370,
      "entry": 7371,
      "cel": 7372,
      "organized": 7373,
      "iatric": 7374,
      "accompl": 7375,
      "entirely": 7376,
      "surrounding": 7377,
      "wear": 7378,
      "shared": 7379,
      "1993": 7380,
      "ogen": 7381,
      "spend": 7382,
      "Times": 7383,
      "youth": 7384,
      "leaving": 7385,
      "DO": 7386,
      "Artic": 7387,
      "secondary": 7388,
      "failed": 7389,
      "administration": 7390,
      "Que": 7391,
      "girls": 7392,
      "CP": 7393,
      "decline": 7394,
      "discussed": 7395,
      "stable": 7396,
      "sole": 7397,
      "tages": 7398,
      "experiments": 7399,
      "agreement": 7400,
      "Power": 7401,
      "sures": 7402,
      "orient": 7403,
      "Micro": 7404,
      "respective": 7405,
      "anc": 7406,
      "flex": 7407,
      "explains": 7408,
      "impossible": 7409,
      "Met": 7410,
      "dependent": 7411,
      "cars": 7412,
      "fell": 7413,
      "troops": 7414,
      "physics": 7415,
      "eff": 7416,
      "mbly": 7417,
      "consequences": 7418,
      "effectively": 7419,
      "marriage": 7420,
      "IG": 7421,
      "tood": 7422,
      "diagnosed": 7423,
      "jection": 7424,
      "police": 7425,
      "ING": 7426,
      "app": 7427,
      "comprehensive": 7428,
      "sudden": 7429,
      "ules": 7430,
      "computers": 7431,
      "contained": 7432,
      "bones": 7433,
      "Ency": 7434,
      "iance": 7435,
      "roid": 7436,
      "79": 7437,
      "evil": 7438,
      "ario": 7439,
      "Time": 7440,
      "Psych": 7441,
      "straight": 7442,
      "regul": 7443,
      "supplement": 7444,
      "Roy": 7445,
      "Services": 7446,
      "Family": 7447,
      "resol": 7448,
      "employe": 7449,
      "understood": 7450,
      "precise": 7451,
      "Disease": 7452,
      "quar": 7453,
      "newspa": 7454,
      "distinct": 7455,
      "investment": 7456,
      "pure": 7457,
      "voc": 7458,
      "Despite": 7459,
      "spiritual": 7460,
      "Wood": 7461,
      "instruct": 7462,
      "coordin": 7463,
      "EM": 7464,
      "instrument": 7465,
      "Mark": 7466,
      "sembly": 7467,
      "Holy": 7468,
      "cm": 7469,
      "cracy": 7470,
      "Make": 7471,
      "vulner": 7472,
      "ideal": 7473,
      "fossil": 7474,
      "deer": 7475,
      "labe": 7476,
      "va": 7477,
      "Australian": 7478,
      "iang": 7479,
      "encing": 7480,
      "represents": 7481,
      "interests": 7482,
      "64": 7483,
      "ries": 7484,
      "theless": 7485,
      "dust": 7486,
      "Ital": 7487,
      "react": 7488,
      "seas": 7489,
      "Georg": 7490,
      "opinion": 7491,
      "possibility": 7492,
      "obl": 7493,
      "igation": 7494,
      "fairs": 7495,
      "Num": 7496,
      "roots": 7497,
      "confir": 7498,
      "constru": 7499,
      "calcium": 7500,
      "train": 7501,
      "village": 7502,
      "Special": 7503,
      "shot": 7504,
      "worldwide": 7505,
      "dedic": 7506,
      "hes": 7507,
      "yield": 7508,
      "Follow": 7509,
      "zen": 7510,
      "doubt": 7511,
      "icial": 7512,
      "adding": 7513,
      "opened": 7514,
      "iety": 7515,
      "ifying": 7516,
      "describes": 7517,
      "Na": 7518,
      "moist": 7519,
      "phr": 7520,
      "relations": 7521,
      "playing": 7522,
      "Resources": 7523,
      "broken": 7524,
      "sounds": 7525,
      "fortunately": 7526,
      "onic": 7527,
      "expressed": 7528,
      "Though": 7529,
      "aircraft": 7530,
      "Color": 7531,
      "brow": 7532,
      "wire": 7533,
      "flowers": 7534,
      "shaped": 7535,
      "angle": 7536,
      "Learning": 7537,
      "joined": 7538,
      "tiny": 7539,
      "iated": 7540,
      "clar": 7541,
      "Academy": 7542,
      "mature": 7543,
      "Revolution": 7544,
      "AA": 7545,
      "acking": 7546,
      "equival": 7547,
      "intel": 7548,
      "Researchers": 7549,
      "pictures": 7550,
      "72": 7551,
      "nine": 7552,
      "Haw": 7553,
      "sper": 7554,
      "substance": 7555,
      "Brown": 7556,
      "laun": 7557,
      "refers": 7558,
      "childhood": 7559,
      "increasingly": 7560,
      "decrease": 7561,
      "exchange": 7562,
      "Ba": 7563,
      "preced": 7564,
      "leaf": 7565,
      "generated": 7566,
      "horizon": 7567,
      "ethnic": 7568,
      ".'": 7569,
      "border": 7570,
      "cognitive": 7571,
      "bin": 7572,
      "fever": 7573,
      "schem": 7574,
      "brew": 7575,
      "evalu": 7576,
      "printed": 7577,
      "none": 7578,
      "writer": 7579,
      "Top": 7580,
      "ean": 7581,
      "amb": 7582,
      "proof": 7583,
      "frag": 7584,
      "wildlife": 7585,
      "TV": 7586,
      "Int": 7587,
      "retain": 7588,
      "het": 7589,
      "Fish": 7590,
      "Gal": 7591,
      "drawn": 7592,
      "construct": 7593,
      "biology": 7594,
      "remaining": 7595,
      "brown": 7596,
      "Eastern": 7597,
      "contamin": 7598,
      "vessels": 7599,
      "Iran": 7600,
      "topics": 7601,
      "museum": 7602,
      "willing": 7603,
      "Work": 7604,
      "azine": 7605,
      "ographic": 7606,
      "Columb": 7607,
      "affects": 7608,
      "Forest": 7609,
      "08": 7610,
      "abund": 7611,
      "necessarily": 7612,
      "survival": 7613,
      "Gold": 7614,
      "RA": 7615,
      "diversity": 7616,
      "custo": 7617,
      "Exam": 7618,
      "Have": 7619,
      "Op": 7620,
      "doors": 7621,
      "circumst": 7622,
      "lers": 7623,
      "vital": 7624,
      "fruits": 7625,
      "toler": 7626,
      "Secret": 7627,
      "career": 7628,
      "download": 7629,
      "consistent": 7630,
      "intellect": 7631,
      "ureau": 7632,
      "stomach": 7633,
      "Du": 7634,
      "Mountain": 7635,
      "exts": 7636,
      "stein": 7637,
      "Carolina": 7638,
      "theast": 7639,
      "Sciences": 7640,
      "Current": 7641,
      "Chapter": 7642,
      "crete": 7643,
      "movements": 7644,
      "detect": 7645,
      "repeated": 7646,
      "flower": 7647,
      "volunte": 7648,
      "Down": 7649,
      "lies": 7650,
      "abnormal": 7651,
      "19th": 7652,
      "extended": 7653,
      "HT": 7654,
      "anth": 7655,
      "figures": 7656,
      "Ima": 7657,
      "naturally": 7658,
      "guidelines": 7659,
      "exists": 7660,
      "muscles": 7661,
      "Windows": 7662,
      "stract": 7663,
      "excellent": 7664,
      "intest": 7665,
      "amed": 7666,
      "implementation": 7667,
      "otes": 7668,
      "Rome": 7669,
      "nom": 7670,
      "Access": 7671,
      "Tor": 7672,
      "ameter": 7673,
      "generate": 7674,
      "BM": 7675,
      "sod": 7676,
      "eves": 7677,
      "preme": 7678,
      "Copyright": 7679,
      "waves": 7680,
      "worse": 7681,
      "hole": 7682,
      "domain": 7683,
      "depos": 7684,
      "meter": 7685,
      "signals": 7686,
      "asthma": 7687,
      "Kore": 7688,
      "Rom": 7689,
      "09": 7690,
      "Spr": 7691,
      "uco": 7692,
      "dates": 7693,
      "enses": 7694,
      "explore": 7695,
      "leadership": 7696,
      "USA": 7697,
      "permanent": 7698,
      "manage": 7699,
      "fighting": 7700,
      "Dom": 7701,
      "maps": 7702,
      "Martin": 7703,
      "pit": 7704,
      "agra": 7705,
      "dose": 7706,
      "Italy": 7707,
      "recognize": 7708,
      "fract": 7709,
      "household": 7710,
      "ogle": 7711,
      "ape": 7712,
      "oll": 7713,
      "flat": 7714,
      "opening": 7715,
      "debate": 7716,
      "seeing": 7717,
      "consult": 7718,
      "reci": 7719,
      "Spain": 7720,
      "aur": 7721,
      "emia": 7722,
      "polar": 7723,
      "remo": 7724,
      "tag": 7725,
      "lesson": 7726,
      "scope": 7727,
      "molecules": 7728,
      "critic": 7729,
      "description": 7730,
      "Dou": 7731,
      "format": 7732,
      "hi": 7733,
      "neither": 7734,
      "surve": 7735,
      "destroyed": 7736,
      "false": 7737,
      "twice": 7738,
      "Atlantic": 7739,
      "abuse": 7740,
      "ulf": 7741,
      "produces": 7742,
      "approaches": 7743,
      "introduction": 7744,
      "nd": 7745,
      "esterol": 7746,
      "hus": 7747,
      "density": 7748,
      "electro": 7749,
      "emotional": 7750,
      "SO": 7751,
      "employed": 7752,
      "occasion": 7753,
      "1991": 7754,
      "AIDS": 7755,
      "islands": 7756,
      "division": 7757,
      "electronic": 7758,
      "daughter": 7759,
      "impacts": 7760,
      "anda": 7761,
      "aria": 7762,
      "twenty": 7763,
      "minimum": 7764,
      "800": 7765,
      "sports": 7766,
      "motiv": 7767,
      "greenhouse": 7768,
      "chest": 7769,
      "electron": 7770,
      "boy": 7771,
      "anes": 7772,
      "Sometimes": 7773,
      "shor": 7774,
      "Orig": 7775,
      "Climate": 7776,
      "dream": 7777,
      "Three": 7778,
      "syl": 7779,
      "Constitution": 7780,
      "sequence": 7781,
      "mixed": 7782,
      "stages": 7783,
      "stored": 7784,
      "survive": 7785,
      "zero": 7786,
      "concentration": 7787,
      "recept": 7788,
      "obesity": 7789,
      "roads": 7790,
      "....": 7791,
      "ture": 7792,
      "olf": 7793,
      "Bank": 7794,
      "landscape": 7795,
      "oy": 7796,
      "kidney": 7797,
      "Finally": 7798,
      "mentia": 7799,
      "revealed": 7800,
      "Table": 7801,
      "arth": 7802,
      "Street": 7803,
      "paralle": 7804,
      "Tit": 7805,
      "estimate": 7806,
      "ua": 7807,
      "astructure": 7808,
      "propos": 7809,
      "neur": 7810,
      "plicated": 7811,
      "resto": 7812,
      "switch": 7813,
      "regularly": 7814,
      "Ur": 7815,
      "ada": 7816,
      "orbit": 7817,
      "EPA": 7818,
      "helpful": 7819,
      "publication": 7820,
      "config": 7821,
      "feder": 7822,
      "forth": 7823,
      "kins": 7824,
      "agreed": 7825,
      "identity": 7826,
      "camera": 7827,
      "Agency": 7828,
      "chair": 7829,
      "Mont": 7830,
      "bath": 7831,
      "replaced": 7832,
      "Design": 7833,
      "DC": 7834,
      "icts": 7835,
      "20th": 7836,
      "guard": 7837,
      "nutrients": 7838,
      "SP": 7839,
      "instruments": 7840,
      "Bill": 7841,
      "greatly": 7842,
      "tells": 7843,
      "onia": 7844,
      "pregnant": 7845,
      "AB": 7846,
      "plas": 7847,
      "comments": 7848,
      "fewer": 7849,
      "slowly": 7850,
      "58": 7851,
      "tumor": 7852,
      "neck": 7853,
      "smoke": 7854,
      "defe": 7855,
      "digest": 7856,
      "07": 7857,
      "ked": 7858,
      "moun": 7859,
      "curren": 7860,
      "Boston": 7861,
      "Native": 7862,
      "pron": 7863,
      "shore": 7864,
      "magnetic": 7865,
      "breeding": 7866,
      "graphy": 7867,
      "expans": 7868,
      "Empire": 7869,
      "Es": 7870,
      "sweet": 7871,
      "approved": 7872,
      "dioxide": 7873,
      "desc": 7874,
      "launch": 7875,
      "fib": 7876,
      "philosophy": 7877,
      "EP": 7878,
      "routine": 7879,
      "limits": 7880,
      "cher": 7881,
      "arrived": 7882,
      "06": 7883,
      "DP": 7884,
      "younger": 7885,
      "immediate": 7886,
      "56": 7887,
      "sections": 7888,
      "managed": 7889,
      "minute": 7890,
      "locations": 7891,
      "brid": 7892,
      "RI": 7893,
      "shut": 7894,
      "diction": 7895,
      "commission": 7896,
      "driving": 7897,
      "observations": 7898,
      "fects": 7899,
      "Langu": 7900,
      "aggress": 7901,
      "pleas": 7902,
      "talking": 7903,
      "situations": 7904,
      "pretty": 7905,
      "mers": 7906,
      "Produ": 7907,
      "delay": 7908,
      "Director": 7909,
      "Lit": 7910,
      "cof": 7911,
      "tips": 7912,
      "wing": 7913,
      "blind": 7914,
      "authorities": 7915,
      "tube": 7916,
      "Keep": 7917,
      "Clar": 7918,
      "Columbia": 7919,
      "medium": 7920,
      "earthqu": 7921,
      "issued": 7922,
      "Ire": 7923,
      "compr": 7924,
      "mechanism": 7925,
      "scar": 7926,
      "poison": 7927,
      "colors": 7928,
      "aska": 7929,
      "opposite": 7930,
      "vehicles": 7931,
      "achieved": 7932,
      "ifies": 7933,
      "fishing": 7934,
      "attached": 7935,
      "etics": 7936,
      "editor": 7937,
      "bour": 7938,
      "conven": 7939,
      "Author": 7940,
      "App": 7941,
      "Source": 7942,
      "signed": 7943,
      "perspective": 7944,
      "98": 7945,
      "Vict": 7946,
      "fold": 7947,
      "difficulty": 7948,
      "iot": 7949,
      "andon": 7950,
      "heimer": 7951,
      "accounts": 7952,
      "Jeff": 7953,
      "pursu": 7954,
      "appreci": 7955,
      "Valley": 7956,
      "73": 7957,
      "supplies": 7958,
      "03": 7959,
      "graduate": 7960,
      "peak": 7961,
      "serving": 7962,
      "agers": 7963,
      "TS": 7964,
      "acceler": 7965,
      "earl": 7966,
      "Laboratory": 7967,
      "Administration": 7968,
      ":||": 7969,
      "var": 7970,
      "vote": 7971,
      "pled": 7972,
      "02": 7973,
      "dimens": 7974,
      "seemed": 7975,
      "vania": 7976,
      "negot": 7977,
      "Mel": 7978,
      "mac": 7979,
      "Darwin": 7980,
      "witness": 7981,
      "Page": 7982,
      "indicates": 7983,
      "manufactur": 7984,
      "myster": 7985,
      "consumers": 7986,
      "MO": 7987,
      "ibilities": 7988,
      "stimul": 7989,
      "oration": 7990,
      "frequent": 7991,
      "ena": 7992,
      "elev": 7993,
      "eric": 7994,
      "composition": 7995,
      "html": 7996,
      "lung": 7997,
      "tration": 7998,
      "Dig": 7999,
      "Several": 8000,
      "couple": 8001,
      "bind": 8002,
      "Learn": 8003,
      "blow": 8004,
      "icians": 8005,
      "proportion": 8006,
      "Board": 8007,
      "Scientists": 8008,
      "iti": 8009,
      "sey": 8010,
      "courses": 8011,
      "innov": 8012,
      "grew": 8013,
      "Writ": 8014,
      "icon": 8015,
      "noise": 8016,
      "coura": 8017,
      "promin": 8018,
      "dementia": 8019,
      "Youn": 8020,
      "Wis": 8021,
      "tropical": 8022,
      "”,": 8023,
      "veter": 8024,
      "trials": 8025,
      "answers": 8026,
      "han": 8027,
      "imal": 8028,
      "boys": 8029,
      "Build": 8030,
      "enance": 8031,
      "rocks": 8032,
      "solve": 8033,
      "equivalent": 8034,
      "culation": 8035,
      "transmission": 8036,
      "Ele": 8037,
      "compare": 8038,
      "chosen": 8039,
      "territory": 8040,
      "UT": 8041,
      "enhance": 8042,
      "04": 8043,
      "cultiv": 8044,
      "Avoid": 8045,
      "View": 8046,
      "usive": 8047,
      "makers": 8048,
      "orses": 8049,
      "Alz": 8050,
      "Dec": 8051,
      "variable": 8052,
      "honor": 8053,
      "powers": 8054,
      "Map": 8055,
      "pine": 8056,
      "legs": 8057,
      "CO2": 8058,
      "cribed": 8059,
      "circumstances": 8060,
      "recovery": 8061,
      "outer": 8062,
      "department": 8063,
      "clust": 8064,
      "fixed": 8065,
      "infrastructure": 8066,
      "mice": 8067,
      "carefully": 8068,
      "budget": 8069,
      "drought": 8070,
      "percentage": 8071,
      "Google": 8072,
      "Islamic": 8073,
      "Encyclopedia": 8074,
      "Sir": 8075,
      "bles": 8076,
      "Scott": 8077,
      "Budd": 8078,
      "somewhat": 8079,
      "dians": 8080,
      "prohib": 8081,
      "knows": 8082,
      "Sc": 8083,
      "inser": 8084,
      "owned": 8085,
      "insects": 8086,
      "Sar": 8087,
      "drain": 8088,
      "sty": 8089,
      "volcan": 8090,
      "scientist": 8091,
      "cholesterol": 8092,
      "resulted": 8093,
      "HA": 8094,
      "Grand": 8095,
      "Georgia": 8096,
      "remot": 8097,
      "ishop": 8098,
      "county": 8099,
      "vard": 8100,
      "Indu": 8101,
      "sharing": 8102,
      "Mich": 8103,
      "igan": 8104,
      "unable": 8105,
      "CS": 8106,
      "parties": 8107,
      "elected": 8108,
      "successfully": 8109,
      "CT": 8110,
      "spit": 8111,
      "constit": 8112,
      "brush": 8113,
      "vironments": 8114,
      "Hor": 8115,
      "bread": 8116,
      "oul": 8117,
      "Heart": 8118,
      "connect": 8119,
      "Missis": 8120,
      "diverse": 8121,
      "involving": 8122,
      "ita": 8123,
      "express": 8124,
      "readers": 8125,
      "96": 8126,
      "grain": 8127,
      "inch": 8128,
      "susp": 8129,
      "ye": 8130,
      "isto": 8131,
      "ication": 8132,
      "decide": 8133,
      "composed": 8134,
      "1950": 8135,
      "election": 8136,
      "mary": 8137,
      "tub": 8138,
      "hero": 8139,
      "curriculum": 8140,
      "athy": 8141,
      "vascular": 8142,
      "umes": 8143,
      "operate": 8144,
      "improving": 8145,
      "sor": 8146,
      "missions": 8147,
      "Call": 8148,
      "Take": 8149,
      "mad": 8150,
      "Mississip": 8151,
      "secure": 8152,
      "housing": 8153,
      "Alzheimer": 8154,
      "facilit": 8155,
      "define": 8156,
      "depart": 8157,
      "Type": 8158,
      "Pennsyl": 8159,
      "nin": 8160,
      "71": 8161,
      "throw": 8162,
      "supposed": 8163,
      "miss": 8164,
      "accum": 8165,
      "coastal": 8166,
      "Low": 8167,
      "Sign": 8168,
      "bag": 8169,
      "74": 8170,
      "Sing": 8171,
      "Quest": 8172,
      "',": 8173,
      "cod": 8174,
      "zil": 8175,
      "papers": 8176,
      "debt": 8177,
      "Ange": 8178,
      "fourth": 8179,
      "PDF": 8180,
      "ingred": 8181,
      "foundation": 8182,
      "stands": 8183,
      "igenous": 8184,
      "iac": 8185,
      "inhib": 8186,
      "trip": 8187,
      "rising": 8188,
      "accident": 8189,
      "fertil": 8190,
      "rab": 8191,
      "studying": 8192,
      "stick": 8193,
      "Conservation": 8194,
      "CL": 8195,
      "FA": 8196,
      "Pract": 8197,
      "pup": 8198,
      "holding": 8199,
      "ola": 8200,
      "plication": 8201,
      "evaluation": 8202,
      "babies": 8203,
      "Party": 8204,
      "walking": 8205,
      "Sil": 8206,
      "Vi": 8207,
      "Rock": 8208,
      "legislation": 8209,
      "arg": 8210,
      "lifest": 8211,
      "acknow": 8212,
      "migration": 8213,
      "breathing": 8214,
      "remark": 8215,
      "Asian": 8216,
      "persist": 8217,
      "physician": 8218,
      "ode": 8219,
      "succeed": 8220,
      "wait": 8221,
      "tasks": 8222,
      "iana": 8223,
      "dominant": 8224,
      "generations": 8225,
      "falls": 8226,
      "Prov": 8227,
      "association": 8228,
      "(\"": 8229,
      "whatever": 8230,
      "uted": 8231,
      "participation": 8232,
      "cow": 8233,
      "plements": 8234,
      "Rob": 8235,
      "Miss": 8236,
      "Indians": 8237,
      "regulations": 8238,
      "Eth": 8239,
      "uni": 8240,
      "reserved": 8241,
      "mg": 8242,
      "roof": 8243,
      "Oxford": 8244,
      "Mu": 8245,
      "painting": 8246,
      "Survey": 8247,
      "ratio": 8248,
      "Never": 8249,
      "aph": 8250,
      "usions": 8251,
      "Ret": 8252,
      "cats": 8253,
      "eries": 8254,
      "choices": 8255,
      "600": 8256,
      "zed": 8257,
      "adap": 8258,
      "ificial": 8259,
      "lake": 8260,
      "Online": 8261,
      "examine": 8262,
      "facility": 8263,
      "cards": 8264,
      "arrange": 8265,
      "graphic": 8266,
      "Pennsylvania": 8267,
      "fellow": 8268,
      "cents": 8269,
      "declared": 8270,
      "ammation": 8271,
      "remote": 8272,
      "68": 8273,
      "bits": 8274,
      "markets": 8275,
      "nearby": 8276,
      "insp": 8277,
      "murder": 8278,
      "lists": 8279,
      "shift": 8280,
      "substances": 8281,
      "Pak": 8282,
      "epide": 8283,
      "announced": 8284,
      "Key": 8285,
      "reject": 8286,
      "tea": 8287,
      "meters": 8288,
      "preval": 8289,
      "simpl": 8290,
      "cutting": 8291,
      "appointed": 8292,
      "Victor": 8293,
      "59": 8294,
      "Van": 8295,
      "ritis": 8296,
      "plays": 8297,
      "entered": 8298,
      "drawing": 8299,
      "transportation": 8300,
      "Italian": 8301,
      "idespread": 8302,
      "suffering": 8303,
      "oms": 8304,
      "indicated": 8305,
      "comparison": 8306,
      "Bul": 8307,
      "recycl": 8308,
      "environments": 8309,
      "DS": 8310,
      "wine": 8311,
      "rays": 8312,
      "conference": 8313,
      "Irish": 8314,
      "gus": 8315,
      "rice": 8316,
      "intervention": 8317,
      "heads": 8318,
      "trigger": 8319,
      "Community": 8320,
      "Hall": 8321,
      "narr": 8322,
      "Mississippi": 8323,
      "mild": 8324,
      "asts": 8325,
      "competition": 8326,
      "destruction": 8327,
      "Date": 8328,
      "consumer": 8329,
      "Cer": 8330,
      "banks": 8331,
      "suitable": 8332,
      "dollars": 8333,
      "rivers": 8334,
      "bean": 8335,
      "cancers": 8336,
      "extin": 8337,
      "definite": 8338,
      "provider": 8339,
      "Cambridge": 8340,
      "Age": 8341,
      "Lar": 8342,
      "funded": 8343,
      "Kingdom": 8344,
      "capture": 8345,
      "uous": 8346,
      "eving": 8347,
      "Den": 8348,
      "deli": 8349,
      "recommendations": 8350,
      "iant": 8351,
      "lessons": 8352,
      "Christmas": 8353,
      "tight": 8354,
      "enable": 8355,
      "sec": 8356,
      "controls": 8357,
      "fab": 8358,
      "reform": 8359,
      "liament": 8360,
      "integrated": 8361,
      "Wildlife": 8362,
      "explanation": 8363,
      "cited": 8364,
      "closer": 8365,
      "oo": 8366,
      "exception": 8367,
      "igno": 8368,
      "university": 8369,
      "burning": 8370,
      "Gard": 8371,
      "communications": 8372,
      "Fund": 8373,
      "stri": 8374,
      "matters": 8375,
      "turns": 8376,
      "Prevention": 8377,
      "Hun": 8378,
      "interpre": 8379,
      "1989": 8380,
      "laid": 8381,
      "funds": 8382,
      "constructed": 8383,
      "thal": 8384,
      "Exper": 8385,
      "launched": 8386,
      "lots": 8387,
      "tooth": 8388,
      "PR": 8389,
      "participate": 8390,
      "beat": 8391,
      "abandon": 8392,
      "meal": 8393,
      "fet": 8394,
      "asy": 8395,
      "urches": 8396,
      "acres": 8397,
      "ums": 8398,
      "stones": 8399,
      "street": 8400,
      "ache": 8401,
      "organs": 8402,
      "responses": 8403,
      "Search": 8404,
      "Tom": 8405,
      "ahead": 8406,
      "welling": 8407,
      "ultimately": 8408,
      "expansion": 8409,
      "52": 8410,
      "filter": 8411,
      "criter": 8412,
      "reader": 8413,
      "handle": 8414,
      "Ko": 8415,
      "rein": 8416,
      "encounter": 8417,
      "odiversity": 8418,
      "disaster": 8419,
      "struggle": 8420,
      "networks": 8421,
      "insulin": 8422,
      "maint": 8423,
      "sacr": 8424,
      "award": 8425,
      "spending": 8426,
      "covering": 8427,
      "quarter": 8428,
      "distributed": 8429,
      "Prince": 8430,
      "trained": 8431,
      "committee": 8432,
      "branch": 8433,
      "fiber": 8434,
      "neutr": 8435,
      "53": 8436,
      "runs": 8437,
      "Hill": 8438,
      "enzy": 8439,
      "pling": 8440,
      "principal": 8441,
      "eper": 8442,
      "agents": 8443,
      "feelings": 8444,
      "Check": 8445,
      "maintenance": 8446,
      "viruses": 8447,
      "passage": 8448,
      "mortality": 8449,
      "Father": 8450,
      "carrying": 8451,
      "coffee": 8452,
      "Next": 8453,
      "Ok": 8454,
      "creates": 8455,
      "centers": 8456,
      "arts": 8457,
      "charged": 8458,
      "starts": 8459,
      "professionals": 8460,
      "anxiety": 8461,
      "Tim": 8462,
      "som": 8463,
      "widespread": 8464,
      "attend": 8465,
      "hyth": 8466,
      "logy": 8467,
      "receiving": 8468,
      "smoking": 8469,
      "cryst": 8470,
      "Far": 8471,
      "desire": 8472,
      "yo": 8473,
      "aked": 8474,
      "happy": 8475,
      "ini": 8476,
      "crime": 8477,
      "Coast": 8478,
      "Ref": 8479,
      "lad": 8480,
      "Royal": 8481,
      "Ireland": 8482,
      "driven": 8483,
      "join": 8484,
      "injuries": 8485,
      "trouble": 8486,
      "Kar": 8487,
      "utch": 8488,
      "Py": 8489,
      "intelligence": 8490,
      "54": 8491,
      "velo": 8492,
      "viewed": 8493,
      "intellectual": 8494,
      "Industr": 8495,
      "galax": 8496,
      "ishment": 8497,
      "nerve": 8498,
      "Lee": 8499,
      "Spir": 8500,
      "column": 8501,
      "maintained": 8502,
      "architecture": 8503,
      "Brazil": 8504,
      "truly": 8505,
      "hang": 8506,
      "insurance": 8507,
      "strongly": 8508,
      "mechanisms": 8509,
      "Hom": 8510,
      "Section": 8511,
      "males": 8512,
      "pipe": 8513,
      "sheet": 8514,
      "ingly": 8515,
      "perce": 8516,
      "epis": 8517,
      "defense": 8518,
      "Ot": 8519,
      "afford": 8520,
      "Unfortunately": 8521,
      "slaves": 8522,
      "dedicated": 8523,
      "intake": 8524,
      "worship": 8525,
      "Young": 8526,
      "supporting": 8527,
      "cha": 8528,
      "chro": 8529,
      "mosqu": 8530,
      "weigh": 8531,
      "flav": 8532,
      "EE": 8533,
      "NS": 8534,
      "mine": 8535,
      "Johnson": 8536,
      "gam": 8537,
      "wis": 8538,
      "shad": 8539,
      "citizen": 8540,
      "Language": 8541,
      "Sand": 8542,
      "bomb": 8543,
      "females": 8544,
      "ented": 8545,
      "finite": 8546,
      "planted": 8547,
      "considerable": 8548,
      "modified": 8549,
      "ument": 8550,
      "rose": 8551,
      "abled": 8552,
      "advert": 8553,
      "ounce": 8554,
      "Division": 8555,
      "PL": 8556,
      "improvement": 8557,
      "inflammation": 8558,
      "dress": 8559,
      "committed": 8560,
      "independence": 8561,
      "texts": 8562,
      "conds": 8563,
      "89": 8564,
      "esis": 8565,
      "intense": 8566,
      "circuit": 8567,
      "merely": 8568,
      "mile": 8569,
      "adequate": 8570,
      "Similar": 8571,
      "enemy": 8572,
      "Wal": 8573,
      "icks": 8574,
      "opposed": 8575,
      "politics": 8576,
      "Alexander": 8577,
      "pounds": 8578,
      "escope": 8579,
      "lymph": 8580,
      "adoles": 8581,
      "delivery": 8582,
      "Los": 8583,
      "acting": 8584,
      "rarely": 8585,
      "CDC": 8586,
      "Jul": 8587,
      "passing": 8588,
      "Treatment": 8589,
      "installed": 8590,
      "orith": 8591,
      "cloud": 8592,
      "coll": 8593,
      "covers": 8594,
      "businesses": 8595,
      "Open": 8596,
      "ona": 8597,
      "wheel": 8598,
      "atically": 8599,
      "chick": 8600,
      "resident": 8601,
      "Reference": 8602,
      "Pas": 8603,
      "Leg": 8604,
      "chemistry": 8605,
      "purchase": 8606,
      "promise": 8607,
      "vs": 8608,
      "Security": 8609,
      "Pakistan": 8610,
      "Ra": 8611,
      "scholar": 8612,
      "satellite": 8613,
      "Big": 8614,
      "Bab": 8615,
      "blocks": 8616,
      "borne": 8617,
      "medicines": 8618,
      "convers": 8619,
      "fan": 8620,
      "oty": 8621,
      "flash": 8622,
      "paras": 8623,
      "artists": 8624,
      "crucial": 8625,
      "Organization": 8626,
      "ione": 8627,
      "underlying": 8628,
      "supports": 8629,
      "programming": 8630,
      "demonstrated": 8631,
      "crimination": 8632,
      "union": 8633,
      "ubs": 8634,
      "philosoph": 8635,
      "beliefs": 8636,
      "Dep": 8637,
      "theories": 8638,
      "collap": 8639,
      "perior": 8640,
      "recognition": 8641,
      "lib": 8642,
      "mining": 8643,
      "IF": 8644,
      "adel": 8645,
      "escape": 8646,
      "rooms": 8647,
      "behaviors": 8648,
      "ni": 8649,
      "wants": 8650,
      "archae": 8651,
      "scene": 8652,
      "examined": 8653,
      "ancest": 8654,
      "Creat": 8655,
      "Oper": 8656,
      "iod": 8657,
      "pu": 8658,
      "roughly": 8659,
      "voltage": 8660,
      "friendly": 8661,
      "horses": 8662,
      "inject": 8663,
      "rational": 8664,
      "cury": 8665,
      "Main": 8666,
      "Arctic": 8667,
      "directed": 8668,
      "arrest": 8669,
      "confirmed": 8670,
      "prev": 8671,
      "swim": 8672,
      "Secretary": 8673,
      "fas": 8674,
      "nose": 8675,
      "orous": 8676,
      "temporary": 8677,
      "51": 8678,
      "CI": 8679,
      "pill": 8680,
      "ria": 8681,
      "Does": 8682,
      "Supreme": 8683,
      "framework": 8684,
      "Bus": 8685,
      "Us": 8686,
      "umps": 8687,
      "sensit": 8688,
      "mone": 8689,
      "categories": 8690,
      "sch": 8691,
      "compounds": 8692,
      "ails": 8693,
      "Card": 8694,
      "rd": 8695,
      "informed": 8696,
      "uset": 8697,
      "array": 8698,
      "reliable": 8699,
      "vous": 8700,
      "1988": 8701,
      "Yes": 8702,
      "compass": 8703,
      "ctr": 8704,
      "concerning": 8705,
      "Ped": 8706,
      "thread": 8707,
      "manip": 8708,
      "oples": 8709,
      "izer": 8710,
      "facing": 8711,
      "Article": 8712,
      "strip": 8713,
      "Hand": 8714,
      "pestic": 8715,
      "compos": 8716,
      "Convention": 8717,
      "thoughts": 8718,
      "Set": 8719,
      "eration": 8720,
      "lighting": 8721,
      "tent": 8722,
      "newly": 8723,
      "Michigan": 8724,
      "reactions": 8725,
      "delivered": 8726,
      "wasn": 8727,
      "captured": 8728,
      "ole": 8729,
      "ongo": 8730,
      "tract": 8731,
      "gradually": 8732,
      "biggest": 8733,
      "measurements": 8734,
      "planned": 8735,
      "Harvard": 8736,
      "partnership": 8737,
      "Network": 8738,
      "HS": 8739,
      "owner": 8740,
      "objective": 8741,
      "manufacturing": 8742,
      "substantial": 8743,
      "86": 8744,
      "respir": 8745,
      "match": 8746,
      "steam": 8747,
      "Whe": 8748,
      "Agriculture": 8749,
      "57": 8750,
      "oured": 8751,
      "examination": 8752,
      "writers": 8753,
      "cultures": 8754,
      "machines": 8755,
      "screening": 8756,
      "weapons": 8757,
      "PO": 8758,
      "cattle": 8759,
      "boat": 8760,
      "Massach": 8761,
      "whereas": 8762,
      "mia": 8763,
      "Mult": 8764,
      "terior": 8765,
      "incidence": 8766,
      "PV": 8767,
      "habits": 8768,
      "Hospital": 8769,
      "sought": 8770,
      "thro": 8771,
      "tricts": 8772,
      "route": 8773,
      "Pot": 8774,
      "comfortable": 8775,
      "usetts": 8776,
      "Naz": 8777,
      "repair": 8778,
      "tock": 8779,
      "effectiveness": 8780,
      "soul": 8781,
      "oids": 8782,
      "ador": 8783,
      "loved": 8784,
      "holes": 8785,
      "Conne": 8786,
      "Jac": 8787,
      "detected": 8788,
      "Massachusetts": 8789,
      "Fact": 8790,
      "Lew": 8791,
      "poem": 8792,
      "glac": 8793,
      "inosa": 8794,
      "mountains": 8795,
      "shif": 8796,
      "Max": 8797,
      "finished": 8798,
      "placing": 8799,
      "harmful": 8800,
      "outcomes": 8801,
      "myth": 8802,
      "Cross": 8803,
      "erals": 8804,
      "calling": 8805,
      "player": 8806,
      "cort": 8807,
      "gluco": 8808,
      "vulnerable": 8809,
      "furn": 8810,
      "crew": 8811,
      "television": 8812,
      "Diction": 8813,
      "continuous": 8814,
      "therap": 8815,
      "kne": 8816,
      "itative": 8817,
      "layers": 8818,
      "Colorado": 8819,
      "unusual": 8820,
      "butter": 8821,
      "Cho": 8822,
      "Change": 8823,
      "session": 8824,
      "slave": 8825,
      "presentation": 8826,
      "empts": 8827,
      "officers": 8828,
      "employees": 8829,
      "complain": 8830,
      "Thir": 8831,
      "counsel": 8832,
      "writes": 8833,
      "enforce": 8834,
      "Conference": 8835,
      "NE": 8836,
      "til": 8837,
      "guaran": 8838,
      "logic": 8839,
      "steel": 8840,
      "mechanical": 8841,
      "Force": 8842,
      "conclusion": 8843,
      "Spirit": 8844,
      "Gulf": 8845,
      "robot": 8846,
      "senior": 8847,
      "width": 8848,
      "alpha": 8849,
      "1930": 8850,
      "plicit": 8851,
      "colour": 8852,
      "120": 8853,
      "enth": 8854,
      "stuff": 8855,
      "beth": 8856,
      "absence": 8857,
      "quarters": 8858,
      "Heritage": 8859,
      "tall": 8860,
      "ero": 8861,
      "phia": 8862,
      "creative": 8863,
      "moves": 8864,
      "gical": 8865,
      "vac": 8866,
      "tumors": 8867,
      "category": 8868,
      "Sk": 8869,
      "gers": 8870,
      "pac": 8871,
      "chlor": 8872,
      "journey": 8873,
      "Bureau": 8874,
      "players": 8875,
      "wound": 8876,
      "reviewed": 8877,
      "inity": 8878,
      "nels": 8879,
      "treating": 8880,
      "relief": 8881,
      "hydrogen": 8882,
      "Fire": 8883,
      "ec": 8884,
      "gies": 8885,
      "idance": 8886,
      "partner": 8887,
      "instructions": 8888,
      "heating": 8889,
      "abul": 8890,
      "Palest": 8891,
      "neighborhood": 8892,
      "\")": 8893,
      "aspect": 8894,
      "transition": 8895,
      "chromo": 8896,
      "tank": 8897,
      "attempts": 8898,
      "protocol": 8899,
      "'.": 8900,
      "Less": 8901,
      "acids": 8902,
      "margin": 8903,
      "69": 8904,
      "mud": 8905,
      "illa": 8906,
      "ishes": 8907,
      "molecular": 8908,
      "iro": 8909,
      "refuge": 8910,
      "Jacks": 8911,
      "ordered": 8912,
      "renewable": 8913,
      "husband": 8914,
      "parallel": 8915,
      "ilation": 8916,
      "ammals": 8917,
      "decor": 8918,
      "thorough": 8919,
      "Lead": 8920,
      "functional": 8921,
      "infants": 8922,
      "Based": 8923,
      "phic": 8924,
      "breaking": 8925,
      "demonstrate": 8926,
      "prompt": 8927,
      "Books": 8928,
      "inois": 8929,
      "Ep": 8930,
      "Paren": 8931,
      "Tel": 8932,
      "rub": 8933,
      "putting": 8934,
      "Ira": 8935,
      "beings": 8936,
      "Francisco": 8937,
      "ora": 8938,
      "breaks": 8939,
      "venue": 8940,
      "lungs": 8941,
      "%)": 8942,
      "Fore": 8943,
      "Gar": 8944,
      "centre": 8945,
      "lifestyle": 8946,
      "RNA": 8947,
      "tens": 8948,
      "Hebrew": 8949,
      "hormone": 8950,
      "nings": 8951,
      "ores": 8952,
      "ende": 8953,
      "ashion": 8954,
      "Policy": 8955,
      "contemporary": 8956,
      "62": 8957,
      "Saint": 8958,
      "dys": 8959,
      "oret": 8960,
      "clock": 8961,
      "hazard": 8962,
      "Doc": 8963,
      "seeking": 8964,
      "psy": 8965,
      "surge": 8966,
      "warning": 8967,
      "Jackson": 8968,
      "asty": 8969,
      "Star": 8970,
      "fairly": 8971,
      "seat": 8972,
      "concluded": 8973,
      "Super": 8974,
      "subsequent": 8975,
      "Mur": 8976,
      "1987": 8977,
      "influenced": 8978,
      "smart": 8979,
      "accessible": 8980,
      "63": 8981,
      "Light": 8982,
      "tissues": 8983,
      "itudes": 8984,
      "Hal": 8985,
      "Liter": 8986,
      "Philadel": 8987,
      "giant": 8988,
      "Perhaps": 8989,
      "gained": 8990,
      "Dif": 8991,
      "ij": 8992,
      "plot": 8993,
      "elder": 8994,
      "artist": 8995,
      "blog": 8996,
      "Plant": 8997,
      "variation": 8998,
      "chron": 8999,
      "Contin": 9000,
      "connections": 9001,
      "sentence": 9002,
      "taste": 9003,
      "enza": 9004,
      "Non": 9005,
      "battery": 9006,
      "MP": 9007,
      "terror": 9008,
      "odies": 9009,
      "essentially": 9010,
      "vised": 9011,
      "wheat": 9012,
      "Furthermore": 9013,
      "algorith": 9014,
      "aland": 9015,
      "calories": 9016,
      "tip": 9017,
      "reaching": 9018,
      "ibl": 9019,
      "ears": 9020,
      "armed": 9021,
      "mann": 9022,
      "careful": 9023,
      "faced": 9024,
      "icip": 9025,
      "surprising": 9026,
      "Cro": 9027,
      "keys": 9028,
      "phosph": 9029,
      "assigned": 9030,
      "manif": 9031,
      "Moon": 9032,
      "flows": 9033,
      "ucky": 9034,
      "cere": 9035,
      "imper": 9036,
      "clothing": 9037,
      "Obama": 9038,
      "phones": 9039,
      "regarded": 9040,
      "Dictionary": 9041,
      "Again": 9042,
      "administer": 9043,
      "Philadelphia": 9044,
      "pump": 9045,
      "amaz": 9046,
      "satisf": 9047,
      "criteria": 9048,
      "?”": 9049,
      "coral": 9050,
      "airy": 9051,
      "slavery": 9052,
      "67": 9053,
      "Bah": 9054,
      "cham": 9055,
      "missing": 9056,
      "District": 9057,
      "tles": 9058,
      "universal": 9059,
      "Isa": 9060,
      "Christians": 9061,
      "alysis": 9062,
      "enorm": 9063,
      "seconds": 9064,
      "abil": 9065,
      "engineers": 9066,
      "inson": 9067,
      "towns": 9068,
      "acquired": 9069,
      "aret": 9070,
      "urine": 9071,
      "engage": 9072,
      "democracy": 9073,
      "Illinois": 9074,
      "Cat": 9075,
      "itz": 9076,
      "interaction": 9077,
      "Modern": 9078,
      "mothers": 9079,
      "trend": 9080,
      "Pass": 9081,
      "thyroid": 9082,
      "virtual": 9083,
      "mathematics": 9084,
      "Flo": 9085,
      "Material": 9086,
      "unk": 9087,
      "observation": 9088,
      "encouraged": 9089,
      "fires": 9090,
      "uma": 9091,
      "isk": 9092,
      "aven": 9093,
      "corner": 9094,
      "Syn": 9095,
      "jac": 9096,
      "ighter": 9097,
      "teens": 9098,
      "phal": 9099,
      "specified": 9100,
      "pointed": 9101,
      "prominent": 9102,
      "implications": 9103,
      "sover": 9104,
      "finds": 9105,
      "autism": 9106,
      "Ros": 9107,
      "mn": 9108,
      "artificial": 9109,
      "Wilson": 9110,
      "Ask": 9111,
      "Reser": 9112,
      "panel": 9113,
      "settled": 9114,
      "Eliza": 9115,
      "script": 9116,
      "districts": 9117,
      "Blood": 9118,
      "Minister": 9119,
      "GO": 9120,
      "yn": 9121,
      "realize": 9122,
      "turning": 9123,
      "nucle": 9124,
      "farming": 9125,
      "violent": 9126,
      "strengthen": 9127,
      "DE": 9128,
      "messages": 9129,
      "alleg": 9130,
      "planets": 9131,
      "Edward": 9132,
      "elsewhere": 9133,
      "una": 9134,
      "respectively": 9135,
      "dish": 9136,
      "intensity": 9137,
      "sons": 9138,
      ")|": 9139,
      "bears": 9140,
      "adds": 9141,
      "damaged": 9142,
      "spectrum": 9143,
      "horizontal": 9144,
      "stations": 9145,
      "Lim": 9146,
      "incent": 9147,
      "aste": 9148,
      "1920": 9149,
      "Islands": 9150,
      ".).": 9151,
      "inform": 9152,
      "oring": 9153,
      "pole": 9154,
      "Recent": 9155,
      "Without": 9156,
      "Ti": 9157,
      "hid": 9158,
      "libr": 9159,
      "warr": 9160,
      "soph": 9161,
      "interface": 9162,
      "equally": 9163,
      "sym": 9164,
      "suffered": 9165,
      "Introdu": 9166,
      "ares": 9167,
      "pressive": 9168,
      "bringing": 9169,
      "interpretation": 9170,
      "disp": 9171,
      "identification": 9172,
      "evaluate": 9173,
      "ti": 9174,
      "client": 9175,
      "supplements": 9176,
      "distur": 9177,
      "asive": 9178,
      "istical": 9179,
      "Centre": 9180,
      "psychological": 9181,
      "Die": 9182,
      "inhabit": 9183,
      "peror": 9184,
      "Historical": 9185,
      "Wed": 9186,
      "surfaces": 9187,
      "inqu": 9188,
      "isolated": 9189,
      "removal": 9190,
      "wo": 9191,
      "chart": 9192,
      "uality": 9193,
      "combat": 9194,
      "Protection": 9195,
      "gate": 9196,
      "Ul": 9197,
      "factory": 9198,
      "moderate": 9199,
      "Mean": 9200,
      "tap": 9201,
      "itter": 9202,
      "phenomenon": 9203,
      "Safety": 9204,
      "priority": 9205,
      "moisture": 9206,
      "arthritis": 9207,
      "hospit": 9208,
      "nervous": 9209,
      "fron": 9210,
      "confidence": 9211,
      "apparently": 9212,
      "advent": 9213,
      "complications": 9214,
      "deploy": 9215,
      "1986": 9216,
      "threatened": 9217,
      "evolutionary": 9218,
      "iotics": 9219,
      "earliest": 9220,
      "Cub": 9221,
      "Dam": 9222,
      "Text": 9223,
      "bond": 9224,
      "saving": 9225,
      "superior": 9226,
      "temple": 9227,
      "Moreover": 9228,
      "branches": 9229,
      "platform": 9230,
      "97": 9231,
      "LA": 9232,
      "hall": 9233,
      "oste": 9234,
      "ipedia": 9235,
      "Blue": 9236,
      "victims": 9237,
      "bac": 9238,
      "interactions": 9239,
      "Neuro": 9240,
      "communicate": 9241,
      "athlet": 9242,
      "advantages": 9243,
      "EU": 9244,
      "aneous": 9245,
      "ongoing": 9246,
      "fashion": 9247,
      "lymp": 9248,
      "accuracy": 9249,
      "Iraq": 9250,
      "gence": 9251,
      "bleeding": 9252,
      "permission": 9253,
      "spin": 9254,
      "medi": 9255,
      "250": 9256,
      "icing": 9257,
      "diameter": 9258,
      "Spring": 9259,
      "rever": 9260,
      "asking": 9261,
      "haust": 9262,
      "emon": 9263,
      "ansas": 9264,
      "aker": 9265,
      "Method": 9266,
      "clip": 9267,
      "bled": 9268,
      "skill": 9269,
      "Fa": 9270,
      "Swed": 9271,
      "evolved": 9272,
      "zon": 9273,
      "ounder": 9274,
      "preventing": 9275,
      "gases": 9276,
      "sts": 9277,
      "Afgh": 9278,
      "preparation": 9279,
      "inated": 9280,
      "complicated": 9281,
      "discrimination": 9282,
      "Model": 9283,
      "Field": 9284,
      "behaviour": 9285,
      "collections": 9286,
      "Economic": 9287,
      "pace": 9288,
      "acute": 9289,
      "clou": 9290,
      "desired": 9291,
      "measurement": 9292,
      "jur": 9293,
      "Start": 9294,
      "Head": 9295,
      "gregation": 9296,
      "utter": 9297,
      "bless": 9298,
      "deser": 9299,
      "incident": 9300,
      "resistant": 9301,
      "Jacob": 9302,
      "inks": 9303,
      "ogue": 9304,
      "taxes": 9305,
      "courage": 9306,
      "Fair": 9307,
      "ancing": 9308,
      "pool": 9309,
      "designs": 9310,
      "mineral": 9311,
      "raising": 9312,
      "boost": 9313,
      "empty": 9314,
      "Drug": 9315,
      "addressed": 9316,
      "burned": 9317,
      "architect": 9318,
      "concrete": 9319,
      "uten": 9320,
      "churches": 9321,
      "degrad": 9322,
      "versions": 9323,
      "serves": 9324,
      "occupied": 9325,
      "dir": 9326,
      "rely": 9327,
      "ette": 9328,
      "circle": 9329,
      "representation": 9330,
      "reasonable": 9331,
      "Indeed": 9332,
      "iology": 9333,
      "verte": 9334,
      "Zealand": 9335,
      "duty": 9336,
      "athe": 9337,
      "favorite": 9338,
      "split": 9339,
      "Gall": 9340,
      "Olymp": 9341,
      "farms": 9342,
      "----": 9343,
      "Wallace": 9344,
      "Ven": 9345,
      "ount": 9346,
      "prey": 9347,
      "ecosystem": 9348,
      "Pur": 9349,
      "caught": 9350,
      "arguments": 9351,
      "Senate": 9352,
      "collaboration": 9353,
      "Daniel": 9354,
      "92": 9355,
      "Try": 9356,
      "contents": 9357,
      "shock": 9358,
      "glucose": 9359,
      "peoples": 9360,
      "evident": 9361,
      "photos": 9362,
      "Volume": 9363,
      "ani": 9364,
      "embr": 9365,
      "extend": 9366,
      "experimental": 9367,
      "GS": 9368,
      "Ram": 9369,
      "edu": 9370,
      "panic": 9371,
      "investigation": 9372,
      "VI": 9373,
      "usage": 9374,
      "fined": 9375,
      "offering": 9376,
      "sharp": 9377,
      "Later": 9378,
      "tribes": 9379,
      "vaccines": 9380,
      "Christianity": 9381,
      "doctr": 9382,
      "engaged": 9383,
      "teenth": 9384,
      "Species": 9385,
      "visitors": 9386,
      "establishment": 9387,
      "criminal": 9388,
      "Sta": 9389,
      "Cla": 9390,
      "beneficial": 9391,
      "silver": 9392,
      "pilot": 9393,
      "hat": 9394,
      "statistics": 9395,
      "Little": 9396,
      "Cree": 9397,
      "expres": 9398,
      "telling": 9399,
      "Word": 9400,
      "implemented": 9401,
      "TR": 9402,
      "abstract": 9403,
      "exhaust": 9404,
      "guidance": 9405,
      "dynamic": 9406,
      "Vit": 9407,
      "Still": 9408,
      "characterized": 9409,
      "assume": 9410,
      "Li": 9411,
      "trends": 9412,
      "yard": 9413,
      "formula": 9414,
      "correctly": 9415,
      "granted": 9416,
      "acre": 9417,
      "ometers": 9418,
      "Confeder": 9419,
      "dies": 9420,
      "maintaining": 9421,
      "updated": 9422,
      "heavily": 9423,
      "planting": 9424,
      "%.": 9425,
      "GE": 9426,
      "grid": 9427,
      "remind": 9428,
      "agent": 9429,
      "oldest": 9430,
      "Engineering": 9431,
      "etry": 9432,
      "icide": 9433,
      "entit": 9434,
      "ecological": 9435,
      "Media": 9436,
      "mathematical": 9437,
      "mammals": 9438,
      "hea": 9439,
      "transmit": 9440,
      "izona": 9441,
      "aled": 9442,
      "itionally": 9443,
      "brings": 9444,
      "Road": 9445,
      "dramatic": 9446,
      ")||": 9447,
      "Battle": 9448,
      "irrit": 9449,
      "Assess": 9450,
      "variables": 9451,
      "occurring": 9452,
      "mam": 9453,
      "aded": 9454,
      "opposition": 9455,
      "copper": 9456,
      "attain": 9457,
      "engines": 9458,
      "Nutr": 9459,
      "Stan": 9460,
      "cardio": 9461,
      "cav": 9462,
      "photographs": 9463,
      "()": 9464,
      "gry": 9465,
      "biom": 9466,
      "difficulties": 9467,
      "proven": 9468,
      "alty": 9469,
      "ventions": 9470,
      "sodium": 9471,
      "FDA": 9472,
      "separated": 9473,
      "gly": 9474,
      "visited": 9475,
      "ders": 9476,
      "tray": 9477,
      "Jim": 9478,
      "scholars": 9479,
      "consciousness": 9480,
      "wisdom": 9481,
      "imaging": 9482,
      "enger": 9483,
      "Nov": 9484,
      "Elizabeth": 9485,
      "LO": 9486,
      "elf": 9487,
      "thanks": 9488,
      "gging": 9489,
      "stores": 9490,
      "killing": 9491,
      "settlement": 9492,
      "council": 9493,
      "emphasis": 9494,
      "Loc": 9495,
      "portions": 9496,
      "commitment": 9497,
      "researcher": 9498,
      "laser": 9499,
      "Kent": 9500,
      "Offic": 9501,
      "excessive": 9502,
      "ja": 9503,
      "vie": 9504,
      "Arizona": 9505,
      "personnel": 9506,
      "copyright": 9507,
      "worst": 9508,
      "audience": 9509,
      "Standard": 9510,
      "iah": 9511,
      "Ass": 9512,
      "paired": 9513,
      "Century": 9514,
      "errors": 9515,
      "settings": 9516,
      "ecosystems": 9517,
      "Origin": 9518,
      "resid": 9519,
      "lowest": 9520,
      "kingdom": 9521,
      "powered": 9522,
      "argued": 9523,
      "cooling": 9524,
      "exec": 9525,
      "atoms": 9526,
      "Muslims": 9527,
      "mond": 9528,
      "characteristic": 9529,
      "Maryland": 9530,
      "61": 9531,
      "Systems": 9532,
      "Liber": 9533,
      "wage": 9534,
      "conserv": 9535,
      "span": 9536,
      "candidate": 9537,
      "ME": 9538,
      "bling": 9539,
      "demands": 9540,
      "Justice": 9541,
      "Consider": 9542,
      "coverage": 9543,
      "Hu": 9544,
      "Oct": 9545,
      "folk": 9546,
      "magnitude": 9547,
      "executive": 9548,
      "Trad": 9549,
      "corre": 9550,
      "measuring": 9551,
      "flour": 9552,
      "Point": 9553,
      "ricane": 9554,
      "Ru": 9555,
      "ensed": 9556,
      "dependence": 9557,
      "decreased": 9558,
      "concentrations": 9559,
      "Mot": 9560,
      "dense": 9561,
      "mol": 9562,
      "yr": 9563,
      "endanger": 9564,
      "cosm": 9565,
      "indigenous": 9566,
      "thentic": 9567,
      "transmitted": 9568,
      "1985": 9569,
      "windows": 9570,
      "hunting": 9571,
      "Sunday": 9572,
      "girl": 9573,
      "Log": 9574,
      "endo": 9575,
      "industries": 9576,
      "________": 9577,
      "ceans": 9578,
      "minerals": 9579,
      "stopped": 9580,
      "beans": 9581,
      "linear": 9582,
      "gravity": 9583,
      "buried": 9584,
      "Person": 9585,
      "ourselves": 9586,
      "Ther": 9587,
      "Chris": 9588,
      "interview": 9589,
      "flies": 9590,
      "significance": 9591,
      "align": 9592,
      "proceed": 9593,
      "grounds": 9594,
      "listen": 9595,
      "Pen": 9596,
      "spaces": 9597,
      "breed": 9598,
      "Avail": 9599,
      "ember": 9600,
      "maybe": 9601,
      "traditions": 9602,
      "expanded": 9603,
      "initiative": 9604,
      "Wat": 9605,
      "yes": 9606,
      "acle": 9607,
      "distant": 9608,
      "argue": 9609,
      "cab": 9610,
      "entr": 9611,
      "hardware": 9612,
      "cotton": 9613,
      "lyn": 9614,
      "outcome": 9615,
      "relax": 9616,
      "ADHD": 9617,
      "begun": 9618,
      "Physical": 9619,
      "CN": 9620,
      "fts": 9621,
      "classical": 9622,
      "preserve": 9623,
      "newspaper": 9624,
      "itarian": 9625,
      "1984": 9626,
      "Ban": 9627,
      "Crit": 9628,
      "1940": 9629,
      "label": 9630,
      "Rab": 9631,
      "Wel": 9632,
      "insu": 9633,
      "alive": 9634,
      "believes": 9635,
      "ruption": 9636,
      "bat": 9637,
      "hr": 9638,
      "disability": 9639,
      "musical": 9640,
      "Feb": 9641,
      "Linux": 9642,
      "feedback": 9643,
      "Alli": 9644,
      "storms": 9645,
      "contributed": 9646,
      "nuts": 9647,
      "mits": 9648,
      "tempor": 9649,
      "1982": 9650,
      "dealing": 9651,
      "finger": 9652,
      "inspired": 9653,
      "Lewis": 9654,
      "SE": 9655,
      "],": 9656,
      "hence": 9657,
      "rh": 9658,
      "illing": 9659,
      "provin": 9660,
      "associate": 9661,
      "Oreg": 9662,
      "rev": 9663,
      "Andrew": 9664,
      "ranging": 9665,
      "racial": 9666,
      "eline": 9667,
      "literary": 9668,
      "behavioral": 9669,
      "matically": 9670,
      "ki": 9671,
      "endment": 9672,
      "rics": 9673,
      "ENT": 9674,
      "assumed": 9675,
      "Camp": 9676,
      "Navy": 9677,
      "icate": 9678,
      "interactive": 9679,
      "rows": 9680,
      "sacred": 9681,
      "Sust": 9682,
      "reefs": 9683,
      "remarkable": 9684,
      "Chief": 9685,
      "internet": 9686,
      "knowing": 9687,
      "extension": 9688,
      "bene": 9689,
      "focuses": 9690,
      "batt": 9691,
      "kel": 9692,
      "thermal": 9693,
      "elve": 9694,
      "cooking": 9695,
      "hypothesis": 9696,
      "mosquito": 9697,
      "terr": 9698,
      "confirm": 9699,
      "vegetation": 9700,
      "RS": 9701,
      "convin": 9702,
      "Relig": 9703,
      "Clinical": 9704,
      "assembl": 9705,
      "considering": 9706,
      "scores": 9707,
      "Alaska": 9708,
      "aneously": 9709,
      "default": 9710,
      "icted": 9711,
      "scop": 9712,
      "allergic": 9713,
      "Fall": 9714,
      "icking": 9715,
      "semin": 9716,
      "disabilities": 9717,
      "intent": 9718,
      "Unlike": 9719,
      "Following": 9720,
      "Sustain": 9721,
      "Ni": 9722,
      "ko": 9723,
      "reduces": 9724,
      "defend": 9725,
      "magazine": 9726,
      "waiting": 9727,
      "Solar": 9728,
      "NY": 9729,
      "UV": 9730,
      "guess": 9731,
      "classified": 9732,
      "herb": 9733,
      "judge": 9734,
      "cler": 9735,
      "harmon": 9736,
      "remed": 9737,
      "diff": 9738,
      "holders": 9739,
      "detection": 9740,
      "Afghan": 9741,
      "keting": 9742,
      "anged": 9743,
      "households": 9744,
      "vig": 9745,
      "ros": 9746,
      "analog": 9747,
      "divine": 9748,
      "integration": 9749,
      "onomy": 9750,
      "earthquake": 9751,
      "respiratory": 9752,
      "acles": 9753,
      "Fun": 9754,
      "bee": 9755,
      "Thanks": 9756,
      "flying": 9757,
      "adverse": 9758,
      "soy": 9759,
      "opa": 9760,
      "Local": 9761,
      "neys": 9762,
      "statements": 9763,
      "channel": 9764,
      "fifth": 9765,
      "Cir": 9766,
      "permit": 9767,
      "variations": 9768,
      "Code": 9769,
      "1979": 9770,
      "fought": 9771,
      "tut": 9772,
      "cooperation": 9773,
      "iously": 9774,
      "Allah": 9775,
      "translation": 9776,
      "700": 9777,
      "Ow": 9778,
      "worry": 9779,
      "nice": 9780,
      "ouri": 9781,
      "copies": 9782,
      "Son": 9783,
      "literacy": 9784,
      "fertility": 9785,
      "Hawai": 9786,
      "enormous": 9787,
      "ura": 9788,
      "ifer": 9789,
      "publish": 9790,
      "stronger": 9791,
      "preserved": 9792,
      "barrier": 9793,
      "Oregon": 9794,
      "93": 9795,
      "Fil": 9796,
      "slo": 9797,
      "reporting": 9798,
      "apor": 9799,
      "usalem": 9800,
      "Jefferson": 9801,
      "ski": 9802,
      "courts": 9803,
      "objectives": 9804,
      "Action": 9805,
      "Ga": 9806,
      "Kids": 9807,
      "oes": 9808,
      "lide": 9809,
      "endar": 9810,
      "membr": 9811,
      "bearing": 9812,
      "mixture": 9813,
      "los": 9814,
      "colored": 9815,
      "thereby": 9816,
      "healthcare": 9817,
      "documented": 9818,
      "theoret": 9819,
      "irrig": 9820,
      "Select": 9821,
      "Marine": 9822,
      "Williams": 9823,
      "Ama": 9824,
      "existed": 9825,
      "Jerusalem": 9826,
      "Standards": 9827,
      "Hur": 9828,
      "Exp": 9829,
      "continuing": 9830,
      "Emer": 9831,
      "lu": 9832,
      "lav": 9833,
      "armac": 9834,
      "1981": 9835,
      "Look": 9836,
      "victory": 9837,
      "sensitivity": 9838,
      "Bor": 9839,
      "Fac": 9840,
      "bigger": 9841,
      "Fer": 9842,
      "Train": 9843,
      "pets": 9844,
      "desert": 9845,
      "till": 9846,
      "bury": 9847,
      "Station": 9848,
      "societies": 9849,
      "everyday": 9850,
      "habitats": 9851,
      "constantly": 9852,
      "Building": 9853,
      ",'": 9854,
      "illegal": 9855,
      "plug": 9856,
      "compound": 9857,
      "Prop": 9858,
      "vice": 9859,
      "tos": 9860,
      "agan": 9861,
      "consideration": 9862,
      "Colon": 9863,
      "references": 9864,
      "hormon": 9865,
      "Remember": 9866,
      "!\"": 9867,
      "regis": 9868,
      "fiction": 9869,
      "Contact": 9870,
      "cuts": 9871,
      "fabric": 9872,
      "Incre": 9873,
      "institution": 9874,
      "plenty": 9875,
      "campus": 9876,
      "Did": 9877,
      "Lev": 9878,
      "Armen": 9879,
      "viral": 9880,
      "smooth": 9881,
      "Way": 9882,
      "rod": 9883,
      "phere": 9884,
      "protective": 9885,
      "humanity": 9886,
      "quantum": 9887,
      "Miller": 9888,
      "Bol": 9889,
      "iny": 9890,
      "perception": 9891,
      "kee": 9892,
      "contribution": 9893,
      "structural": 9894,
      "imagine": 9895,
      "Creek": 9896,
      "attribut": 9897,
      "button": 9898,
      "exercises": 9899,
      "radical": 9900,
      "posted": 9901,
      "spacecraft": 9902,
      "representative": 9903,
      "Friday": 9904,
      "targets": 9905,
      "audio": 9906,
      "antibiotics": 9907,
      ".]": 9908,
      "PH": 9909,
      "ativity": 9910,
      "Healthwise": 9911,
      "ographical": 9912,
      "mentary": 9913,
      "cathe": 9914,
      "province": 9915,
      "Arth": 9916,
      "Arts": 9917,
      "analys": 9918,
      "directions": 9919,
      "losing": 9920,
      "providers": 9921,
      "fuels": 9922,
[...]
